{
  "version": "1.0",
  "truncation": null,
  "padding": null,
  "added_tokens": [
    {
      "id": 0,
      "content": "<|im_start|>",
      "single_word": false,
      "lstrip": false,
      "rstrip": false,
      "normalized": false,
      "special": true
    },
    {
      "id": 1,
      "content": "<|im_end|>",
      "single_word": false,
      "lstrip": false,
      "rstrip": false,
      "normalized": false,
      "special": true
    },
    {
      "id": 2,
      "content": "<|endoftext|>",
      "single_word": false,
      "lstrip": false,
      "rstrip": false,
      "normalized": false,
      "special": true
    },
    {
      "id": 3,
      "content": "<image>",
      "single_word": false,
      "lstrip": false,
      "rstrip": false,
      "normalized": false,
      "special": true
    },
    {
      "id": 4,
      "content": "</image>",
      "single_word": false,
      "lstrip": false,
      "rstrip": false,
      "normalized": false,
      "special": true
    },
    {
      "id": 5,
      "content": "<audio>",
      "single_word": false,
      "lstrip": false,
      "rstrip": false,
      "normalized": false,
      "special": true
    },
    {
      "id": 6,
      "content": "</audio>",
      "single_word": false,
      "lstrip": false,
      "rstrip": false,
      "normalized": false,
      "special": true
    },
    {
      "id": 7,
      "content": "<ref>",
      "single_word": false,
      "lstrip": false,
      "rstrip": false,
      "normalized": false,
      "special": true
    },
    {
      "id": 8,
      "content": "</ref>",
      "single_word": false,
      "lstrip": false,
      "rstrip": false,
      "normalized": false,
      "special": true
    },
    {
      "id": 9,
      "content": "<box>",
      "single_word": false,
      "lstrip": false,
      "rstrip": false,
      "normalized": false,
      "special": true
    },
    {
      "id": 10,
      "content": "</box>",
      "single_word": false,
      "lstrip": false,
      "rstrip": false,
      "normalized": false,
      "special": true
    },
    {
      "id": 11,
      "content": "<quad>",
      "single_word": false,
      "lstrip": false,
      "rstrip": false,
      "normalized": false,
      "special": true
    },
    {
      "id": 12,
      "content": "</quad>",
      "single_word": false,
      "lstrip": false,
      "rstrip": false,
      "normalized": false,
      "special": true
    },
    {
      "id": 13,
      "content": "<slice>",
      "single_word": false,
      "lstrip": false,
      "rstrip": false,
      "normalized": false,
      "special": true
    },
    {
      "id": 14,
      "content": "</slice>",
      "single_word": false,
      "lstrip": false,
      "rstrip": false,
      "normalized": false,
      "special": true
    },
    {
      "id": 15,
      "content": "<image_id>",
      "single_word": false,
      "lstrip": false,
      "rstrip": false,
      "normalized": false,
      "special": true
    },
    {
      "id": 16,
      "content": "</image_id>",
      "single_word": false,
      "lstrip": false,
      "rstrip": false,
      "normalized": false,
      "special": true
    },
    {
      "id": 17,
      "content": "<|audio_start|>",
      "single_word": false,
      "lstrip": false,
      "rstrip": false,
      "normalized": false,
      "special": true
    },
    {
      "id": 18,
      "content": "<|audio_end|>",
      "single_word": false,
      "lstrip": false,
      "rstrip": false,
      "normalized": false,
      "special": true
    },
    {
      "id": 19,
      "content": "<|spk_bos|>",
      "single_word": false,
      "lstrip": false,
      "rstrip": false,
      "normalized": false,
      "special": true
    },
    {
      "id": 20,
      "content": "<|spk_eos|>",
      "single_word": false,
      "lstrip": false,
      "rstrip": false,
      "normalized": false,
      "special": true
    },
    {
      "id": 21,
      "content": "<|tts_bos|>",
      "single_word": false,
      "lstrip": false,
      "rstrip": false,
      "normalized": false,
      "special": true
    },
    {
      "id": 22,
      "content": "<|tts_eos|>",
      "single_word": false,
      "lstrip": false,
      "rstrip": false,
      "normalized": false,
      "special": true
    }
  ],
  "normalizer": null,
  "pre_tokenizer": {
    "type": "Whitespace"
  },
  "post_processor": null,
  "decoder": null,
  "model": {
    "type": "BPE",
    "vocab": {
      "token_0": 0,
      "token_1": 1,
      "token_2": 2,
      "token_3": 3,
      "token_4": 4,
      "token_5": 5,
      "token_6": 6,
      "token_7": 7,
      "token_8": 8,
      "token_9": 9,
      "token_10": 10,
      "token_11": 11,
      "token_12": 12,
      "token_13": 13,
      "token_14": 14,
      "token_15": 15,
      "token_16": 16,
      "token_17": 17,
      "token_18": 18,
      "token_19": 19,
      "token_20": 20,
      "token_21": 21,
      "token_22": 22,
      "token_23": 23,
      "token_24": 24,
      "token_25": 25,
      "token_26": 26,
      "token_27": 27,
      "token_28": 28,
      "token_29": 29,
      "token_30": 30,
      "token_31": 31,
      "token_32": 32,
      "token_33": 33,
      "token_34": 34,
      "token_35": 35,
      "token_36": 36,
      "token_37": 37,
      "token_38": 38,
      "token_39": 39,
      "token_40": 40,
      "token_41": 41,
      "token_42": 42,
      "token_43": 43,
      "token_44": 44,
      "token_45": 45,
      "token_46": 46,
      "token_47": 47,
      "token_48": 48,
      "token_49": 49,
      "token_50": 50,
      "token_51": 51,
      "token_52": 52,
      "token_53": 53,
      "token_54": 54,
      "token_55": 55,
      "token_56": 56,
      "token_57": 57,
      "token_58": 58,
      "token_59": 59,
      "token_60": 60,
      "token_61": 61,
      "token_62": 62,
      "token_63": 63,
      "token_64": 64,
      "token_65": 65,
      "token_66": 66,
      "token_67": 67,
      "token_68": 68,
      "token_69": 69,
      "token_70": 70,
      "token_71": 71,
      "token_72": 72,
      "token_73": 73,
      "token_74": 74,
      "token_75": 75,
      "token_76": 76,
      "token_77": 77,
      "token_78": 78,
      "token_79": 79,
      "token_80": 80,
      "token_81": 81,
      "token_82": 82,
      "token_83": 83,
      "token_84": 84,
      "token_85": 85,
      "token_86": 86,
      "token_87": 87,
      "token_88": 88,
      "token_89": 89,
      "token_90": 90,
      "token_91": 91,
      "token_92": 92,
      "token_93": 93,
      "token_94": 94,
      "token_95": 95,
      "token_96": 96,
      "token_97": 97,
      "token_98": 98,
      "token_99": 99,
      "token_100": 100,
      "token_101": 101,
      "token_102": 102,
      "token_103": 103,
      "token_104": 104,
      "token_105": 105,
      "token_106": 106,
      "token_107": 107,
      "token_108": 108,
      "token_109": 109,
      "token_110": 110,
      "token_111": 111,
      "token_112": 112,
      "token_113": 113,
      "token_114": 114,
      "token_115": 115,
      "token_116": 116,
      "token_117": 117,
      "token_118": 118,
      "token_119": 119,
      "token_120": 120,
      "token_121": 121,
      "token_122": 122,
      "token_123": 123,
      "token_124": 124,
      "token_125": 125,
      "token_126": 126,
      "token_127": 127,
      "token_128": 128,
      "token_129": 129,
      "token_130": 130,
      "token_131": 131,
      "token_132": 132,
      "token_133": 133,
      "token_134": 134,
      "token_135": 135,
      "token_136": 136,
      "token_137": 137,
      "token_138": 138,
      "token_139": 139,
      "token_140": 140,
      "token_141": 141,
      "token_142": 142,
      "token_143": 143,
      "token_144": 144,
      "token_145": 145,
      "token_146": 146,
      "token_147": 147,
      "token_148": 148,
      "token_149": 149,
      "token_150": 150,
      "token_151": 151,
      "token_152": 152,
      "token_153": 153,
      "token_154": 154,
      "token_155": 155,
      "token_156": 156,
      "token_157": 157,
      "token_158": 158,
      "token_159": 159,
      "token_160": 160,
      "token_161": 161,
      "token_162": 162,
      "token_163": 163,
      "token_164": 164,
      "token_165": 165,
      "token_166": 166,
      "token_167": 167,
      "token_168": 168,
      "token_169": 169,
      "token_170": 170,
      "token_171": 171,
      "token_172": 172,
      "token_173": 173,
      "token_174": 174,
      "token_175": 175,
      "token_176": 176,
      "token_177": 177,
      "token_178": 178,
      "token_179": 179,
      "token_180": 180,
      "token_181": 181,
      "token_182": 182,
      "token_183": 183,
      "token_184": 184,
      "token_185": 185,
      "token_186": 186,
      "token_187": 187,
      "token_188": 188,
      "token_189": 189,
      "token_190": 190,
      "token_191": 191,
      "token_192": 192,
      "token_193": 193,
      "token_194": 194,
      "token_195": 195,
      "token_196": 196,
      "token_197": 197,
      "token_198": 198,
      "token_199": 199,
      "token_200": 200,
      "token_201": 201,
      "token_202": 202,
      "token_203": 203,
      "token_204": 204,
      "token_205": 205,
      "token_206": 206,
      "token_207": 207,
      "token_208": 208,
      "token_209": 209,
      "token_210": 210,
      "token_211": 211,
      "token_212": 212,
      "token_213": 213,
      "token_214": 214,
      "token_215": 215,
      "token_216": 216,
      "token_217": 217,
      "token_218": 218,
      "token_219": 219,
      "token_220": 220,
      "token_221": 221,
      "token_222": 222,
      "token_223": 223,
      "token_224": 224,
      "token_225": 225,
      "token_226": 226,
      "token_227": 227,
      "token_228": 228,
      "token_229": 229,
      "token_230": 230,
      "token_231": 231,
      "token_232": 232,
      "token_233": 233,
      "token_234": 234,
      "token_235": 235,
      "token_236": 236,
      "token_237": 237,
      "token_238": 238,
      "token_239": 239,
      "token_240": 240,
      "token_241": 241,
      "token_242": 242,
      "token_243": 243,
      "token_244": 244,
      "token_245": 245,
      "token_246": 246,
      "token_247": 247,
      "token_248": 248,
      "token_249": 249,
      "token_250": 250,
      "token_251": 251,
      "token_252": 252,
      "token_253": 253,
      "token_254": 254,
      "token_255": 255,
      "token_256": 256,
      "token_257": 257,
      "token_258": 258,
      "token_259": 259,
      "token_260": 260,
      "token_261": 261,
      "token_262": 262,
      "token_263": 263,
      "token_264": 264,
      "token_265": 265,
      "token_266": 266,
      "token_267": 267,
      "token_268": 268,
      "token_269": 269,
      "token_270": 270,
      "token_271": 271,
      "token_272": 272,
      "token_273": 273,
      "token_274": 274,
      "token_275": 275,
      "token_276": 276,
      "token_277": 277,
      "token_278": 278,
      "token_279": 279,
      "token_280": 280,
      "token_281": 281,
      "token_282": 282,
      "token_283": 283,
      "token_284": 284,
      "token_285": 285,
      "token_286": 286,
      "token_287": 287,
      "token_288": 288,
      "token_289": 289,
      "token_290": 290,
      "token_291": 291,
      "token_292": 292,
      "token_293": 293,
      "token_294": 294,
      "token_295": 295,
      "token_296": 296,
      "token_297": 297,
      "token_298": 298,
      "token_299": 299,
      "token_300": 300,
      "token_301": 301,
      "token_302": 302,
      "token_303": 303,
      "token_304": 304,
      "token_305": 305,
      "token_306": 306,
      "token_307": 307,
      "token_308": 308,
      "token_309": 309,
      "token_310": 310,
      "token_311": 311,
      "token_312": 312,
      "token_313": 313,
      "token_314": 314,
      "token_315": 315,
      "token_316": 316,
      "token_317": 317,
      "token_318": 318,
      "token_319": 319,
      "token_320": 320,
      "token_321": 321,
      "token_322": 322,
      "token_323": 323,
      "token_324": 324,
      "token_325": 325,
      "token_326": 326,
      "token_327": 327,
      "token_328": 328,
      "token_329": 329,
      "token_330": 330,
      "token_331": 331,
      "token_332": 332,
      "token_333": 333,
      "token_334": 334,
      "token_335": 335,
      "token_336": 336,
      "token_337": 337,
      "token_338": 338,
      "token_339": 339,
      "token_340": 340,
      "token_341": 341,
      "token_342": 342,
      "token_343": 343,
      "token_344": 344,
      "token_345": 345,
      "token_346": 346,
      "token_347": 347,
      "token_348": 348,
      "token_349": 349,
      "token_350": 350,
      "token_351": 351,
      "token_352": 352,
      "token_353": 353,
      "token_354": 354,
      "token_355": 355,
      "token_356": 356,
      "token_357": 357,
      "token_358": 358,
      "token_359": 359,
      "token_360": 360,
      "token_361": 361,
      "token_362": 362,
      "token_363": 363,
      "token_364": 364,
      "token_365": 365,
      "token_366": 366,
      "token_367": 367,
      "token_368": 368,
      "token_369": 369,
      "token_370": 370,
      "token_371": 371,
      "token_372": 372,
      "token_373": 373,
      "token_374": 374,
      "token_375": 375,
      "token_376": 376,
      "token_377": 377,
      "token_378": 378,
      "token_379": 379,
      "token_380": 380,
      "token_381": 381,
      "token_382": 382,
      "token_383": 383,
      "token_384": 384,
      "token_385": 385,
      "token_386": 386,
      "token_387": 387,
      "token_388": 388,
      "token_389": 389,
      "token_390": 390,
      "token_391": 391,
      "token_392": 392,
      "token_393": 393,
      "token_394": 394,
      "token_395": 395,
      "token_396": 396,
      "token_397": 397,
      "token_398": 398,
      "token_399": 399,
      "token_400": 400,
      "token_401": 401,
      "token_402": 402,
      "token_403": 403,
      "token_404": 404,
      "token_405": 405,
      "token_406": 406,
      "token_407": 407,
      "token_408": 408,
      "token_409": 409,
      "token_410": 410,
      "token_411": 411,
      "token_412": 412,
      "token_413": 413,
      "token_414": 414,
      "token_415": 415,
      "token_416": 416,
      "token_417": 417,
      "token_418": 418,
      "token_419": 419,
      "token_420": 420,
      "token_421": 421,
      "token_422": 422,
      "token_423": 423,
      "token_424": 424,
      "token_425": 425,
      "token_426": 426,
      "token_427": 427,
      "token_428": 428,
      "token_429": 429,
      "token_430": 430,
      "token_431": 431,
      "token_432": 432,
      "token_433": 433,
      "token_434": 434,
      "token_435": 435,
      "token_436": 436,
      "token_437": 437,
      "token_438": 438,
      "token_439": 439,
      "token_440": 440,
      "token_441": 441,
      "token_442": 442,
      "token_443": 443,
      "token_444": 444,
      "token_445": 445,
      "token_446": 446,
      "token_447": 447,
      "token_448": 448,
      "token_449": 449,
      "token_450": 450,
      "token_451": 451,
      "token_452": 452,
      "token_453": 453,
      "token_454": 454,
      "token_455": 455,
      "token_456": 456,
      "token_457": 457,
      "token_458": 458,
      "token_459": 459,
      "token_460": 460,
      "token_461": 461,
      "token_462": 462,
      "token_463": 463,
      "token_464": 464,
      "token_465": 465,
      "token_466": 466,
      "token_467": 467,
      "token_468": 468,
      "token_469": 469,
      "token_470": 470,
      "token_471": 471,
      "token_472": 472,
      "token_473": 473,
      "token_474": 474,
      "token_475": 475,
      "token_476": 476,
      "token_477": 477,
      "token_478": 478,
      "token_479": 479,
      "token_480": 480,
      "token_481": 481,
      "token_482": 482,
      "token_483": 483,
      "token_484": 484,
      "token_485": 485,
      "token_486": 486,
      "token_487": 487,
      "token_488": 488,
      "token_489": 489,
      "token_490": 490,
      "token_491": 491,
      "token_492": 492,
      "token_493": 493,
      "token_494": 494,
      "token_495": 495,
      "token_496": 496,
      "token_497": 497,
      "token_498": 498,
      "token_499": 499,
      "token_500": 500,
      "token_501": 501,
      "token_502": 502,
      "token_503": 503,
      "token_504": 504,
      "token_505": 505,
      "token_506": 506,
      "token_507": 507,
      "token_508": 508,
      "token_509": 509,
      "token_510": 510,
      "token_511": 511,
      "token_512": 512,
      "token_513": 513,
      "token_514": 514,
      "token_515": 515,
      "token_516": 516,
      "token_517": 517,
      "token_518": 518,
      "token_519": 519,
      "token_520": 520,
      "token_521": 521,
      "token_522": 522,
      "token_523": 523,
      "token_524": 524,
      "token_525": 525,
      "token_526": 526,
      "token_527": 527,
      "token_528": 528,
      "token_529": 529,
      "token_530": 530,
      "token_531": 531,
      "token_532": 532,
      "token_533": 533,
      "token_534": 534,
      "token_535": 535,
      "token_536": 536,
      "token_537": 537,
      "token_538": 538,
      "token_539": 539,
      "token_540": 540,
      "token_541": 541,
      "token_542": 542,
      "token_543": 543,
      "token_544": 544,
      "token_545": 545,
      "token_546": 546,
      "token_547": 547,
      "token_548": 548,
      "token_549": 549,
      "token_550": 550,
      "token_551": 551,
      "token_552": 552,
      "token_553": 553,
      "token_554": 554,
      "token_555": 555,
      "token_556": 556,
      "token_557": 557,
      "token_558": 558,
      "token_559": 559,
      "token_560": 560,
      "token_561": 561,
      "token_562": 562,
      "token_563": 563,
      "token_564": 564,
      "token_565": 565,
      "token_566": 566,
      "token_567": 567,
      "token_568": 568,
      "token_569": 569,
      "token_570": 570,
      "token_571": 571,
      "token_572": 572,
      "token_573": 573,
      "token_574": 574,
      "token_575": 575,
      "token_576": 576,
      "token_577": 577,
      "token_578": 578,
      "token_579": 579,
      "token_580": 580,
      "token_581": 581,
      "token_582": 582,
      "token_583": 583,
      "token_584": 584,
      "token_585": 585,
      "token_586": 586,
      "token_587": 587,
      "token_588": 588,
      "token_589": 589,
      "token_590": 590,
      "token_591": 591,
      "token_592": 592,
      "token_593": 593,
      "token_594": 594,
      "token_595": 595,
      "token_596": 596,
      "token_597": 597,
      "token_598": 598,
      "token_599": 599,
      "token_600": 600,
      "token_601": 601,
      "token_602": 602,
      "token_603": 603,
      "token_604": 604,
      "token_605": 605,
      "token_606": 606,
      "token_607": 607,
      "token_608": 608,
      "token_609": 609,
      "token_610": 610,
      "token_611": 611,
      "token_612": 612,
      "token_613": 613,
      "token_614": 614,
      "token_615": 615,
      "token_616": 616,
      "token_617": 617,
      "token_618": 618,
      "token_619": 619,
      "token_620": 620,
      "token_621": 621,
      "token_622": 622,
      "token_623": 623,
      "token_624": 624,
      "token_625": 625,
      "token_626": 626,
      "token_627": 627,
      "token_628": 628,
      "token_629": 629,
      "token_630": 630,
      "token_631": 631,
      "token_632": 632,
      "token_633": 633,
      "token_634": 634,
      "token_635": 635,
      "token_636": 636,
      "token_637": 637,
      "token_638": 638,
      "token_639": 639,
      "token_640": 640,
      "token_641": 641,
      "token_642": 642,
      "token_643": 643,
      "token_644": 644,
      "token_645": 645,
      "token_646": 646,
      "token_647": 647,
      "token_648": 648,
      "token_649": 649,
      "token_650": 650,
      "token_651": 651,
      "token_652": 652,
      "token_653": 653,
      "token_654": 654,
      "token_655": 655,
      "token_656": 656,
      "token_657": 657,
      "token_658": 658,
      "token_659": 659,
      "token_660": 660,
      "token_661": 661,
      "token_662": 662,
      "token_663": 663,
      "token_664": 664,
      "token_665": 665,
      "token_666": 666,
      "token_667": 667,
      "token_668": 668,
      "token_669": 669,
      "token_670": 670,
      "token_671": 671,
      "token_672": 672,
      "token_673": 673,
      "token_674": 674,
      "token_675": 675,
      "token_676": 676,
      "token_677": 677,
      "token_678": 678,
      "token_679": 679,
      "token_680": 680,
      "token_681": 681,
      "token_682": 682,
      "token_683": 683,
      "token_684": 684,
      "token_685": 685,
      "token_686": 686,
      "token_687": 687,
      "token_688": 688,
      "token_689": 689,
      "token_690": 690,
      "token_691": 691,
      "token_692": 692,
      "token_693": 693,
      "token_694": 694,
      "token_695": 695,
      "token_696": 696,
      "token_697": 697,
      "token_698": 698,
      "token_699": 699,
      "token_700": 700,
      "token_701": 701,
      "token_702": 702,
      "token_703": 703,
      "token_704": 704,
      "token_705": 705,
      "token_706": 706,
      "token_707": 707,
      "token_708": 708,
      "token_709": 709,
      "token_710": 710,
      "token_711": 711,
      "token_712": 712,
      "token_713": 713,
      "token_714": 714,
      "token_715": 715,
      "token_716": 716,
      "token_717": 717,
      "token_718": 718,
      "token_719": 719,
      "token_720": 720,
      "token_721": 721,
      "token_722": 722,
      "token_723": 723,
      "token_724": 724,
      "token_725": 725,
      "token_726": 726,
      "token_727": 727,
      "token_728": 728,
      "token_729": 729,
      "token_730": 730,
      "token_731": 731,
      "token_732": 732,
      "token_733": 733,
      "token_734": 734,
      "token_735": 735,
      "token_736": 736,
      "token_737": 737,
      "token_738": 738,
      "token_739": 739,
      "token_740": 740,
      "token_741": 741,
      "token_742": 742,
      "token_743": 743,
      "token_744": 744,
      "token_745": 745,
      "token_746": 746,
      "token_747": 747,
      "token_748": 748,
      "token_749": 749,
      "token_750": 750,
      "token_751": 751,
      "token_752": 752,
      "token_753": 753,
      "token_754": 754,
      "token_755": 755,
      "token_756": 756,
      "token_757": 757,
      "token_758": 758,
      "token_759": 759,
      "token_760": 760,
      "token_761": 761,
      "token_762": 762,
      "token_763": 763,
      "token_764": 764,
      "token_765": 765,
      "token_766": 766,
      "token_767": 767,
      "token_768": 768,
      "token_769": 769,
      "token_770": 770,
      "token_771": 771,
      "token_772": 772,
      "token_773": 773,
      "token_774": 774,
      "token_775": 775,
      "token_776": 776,
      "token_777": 777,
      "token_778": 778,
      "token_779": 779,
      "token_780": 780,
      "token_781": 781,
      "token_782": 782,
      "token_783": 783,
      "token_784": 784,
      "token_785": 785,
      "token_786": 786,
      "token_787": 787,
      "token_788": 788,
      "token_789": 789,
      "token_790": 790,
      "token_791": 791,
      "token_792": 792,
      "token_793": 793,
      "token_794": 794,
      "token_795": 795,
      "token_796": 796,
      "token_797": 797,
      "token_798": 798,
      "token_799": 799,
      "token_800": 800,
      "token_801": 801,
      "token_802": 802,
      "token_803": 803,
      "token_804": 804,
      "token_805": 805,
      "token_806": 806,
      "token_807": 807,
      "token_808": 808,
      "token_809": 809,
      "token_810": 810,
      "token_811": 811,
      "token_812": 812,
      "token_813": 813,
      "token_814": 814,
      "token_815": 815,
      "token_816": 816,
      "token_817": 817,
      "token_818": 818,
      "token_819": 819,
      "token_820": 820,
      "token_821": 821,
      "token_822": 822,
      "token_823": 823,
      "token_824": 824,
      "token_825": 825,
      "token_826": 826,
      "token_827": 827,
      "token_828": 828,
      "token_829": 829,
      "token_830": 830,
      "token_831": 831,
      "token_832": 832,
      "token_833": 833,
      "token_834": 834,
      "token_835": 835,
      "token_836": 836,
      "token_837": 837,
      "token_838": 838,
      "token_839": 839,
      "token_840": 840,
      "token_841": 841,
      "token_842": 842,
      "token_843": 843,
      "token_844": 844,
      "token_845": 845,
      "token_846": 846,
      "token_847": 847,
      "token_848": 848,
      "token_849": 849,
      "token_850": 850,
      "token_851": 851,
      "token_852": 852,
      "token_853": 853,
      "token_854": 854,
      "token_855": 855,
      "token_856": 856,
      "token_857": 857,
      "token_858": 858,
      "token_859": 859,
      "token_860": 860,
      "token_861": 861,
      "token_862": 862,
      "token_863": 863,
      "token_864": 864,
      "token_865": 865,
      "token_866": 866,
      "token_867": 867,
      "token_868": 868,
      "token_869": 869,
      "token_870": 870,
      "token_871": 871,
      "token_872": 872,
      "token_873": 873,
      "token_874": 874,
      "token_875": 875,
      "token_876": 876,
      "token_877": 877,
      "token_878": 878,
      "token_879": 879,
      "token_880": 880,
      "token_881": 881,
      "token_882": 882,
      "token_883": 883,
      "token_884": 884,
      "token_885": 885,
      "token_886": 886,
      "token_887": 887,
      "token_888": 888,
      "token_889": 889,
      "token_890": 890,
      "token_891": 891,
      "token_892": 892,
      "token_893": 893,
      "token_894": 894,
      "token_895": 895,
      "token_896": 896,
      "token_897": 897,
      "token_898": 898,
      "token_899": 899,
      "token_900": 900,
      "token_901": 901,
      "token_902": 902,
      "token_903": 903,
      "token_904": 904,
      "token_905": 905,
      "token_906": 906,
      "token_907": 907,
      "token_908": 908,
      "token_909": 909,
      "token_910": 910,
      "token_911": 911,
      "token_912": 912,
      "token_913": 913,
      "token_914": 914,
      "token_915": 915,
      "token_916": 916,
      "token_917": 917,
      "token_918": 918,
      "token_919": 919,
      "token_920": 920,
      "token_921": 921,
      "token_922": 922,
      "token_923": 923,
      "token_924": 924,
      "token_925": 925,
      "token_926": 926,
      "token_927": 927,
      "token_928": 928,
      "token_929": 929,
      "token_930": 930,
      "token_931": 931,
      "token_932": 932,
      "token_933": 933,
      "token_934": 934,
      "token_935": 935,
      "token_936": 936,
      "token_937": 937,
      "token_938": 938,
      "token_939": 939,
      "token_940": 940,
      "token_941": 941,
      "token_942": 942,
      "token_943": 943,
      "token_944": 944,
      "token_945": 945,
      "token_946": 946,
      "token_947": 947,
      "token_948": 948,
      "token_949": 949,
      "token_950": 950,
      "token_951": 951,
      "token_952": 952,
      "token_953": 953,
      "token_954": 954,
      "token_955": 955,
      "token_956": 956,
      "token_957": 957,
      "token_958": 958,
      "token_959": 959,
      "token_960": 960,
      "token_961": 961,
      "token_962": 962,
      "token_963": 963,
      "token_964": 964,
      "token_965": 965,
      "token_966": 966,
      "token_967": 967,
      "token_968": 968,
      "token_969": 969,
      "token_970": 970,
      "token_971": 971,
      "token_972": 972,
      "token_973": 973,
      "token_974": 974,
      "token_975": 975,
      "token_976": 976,
      "token_977": 977,
      "token_978": 978,
      "token_979": 979,
      "token_980": 980,
      "token_981": 981,
      "token_982": 982,
      "token_983": 983,
      "token_984": 984,
      "token_985": 985,
      "token_986": 986,
      "token_987": 987,
      "token_988": 988,
      "token_989": 989,
      "token_990": 990,
      "token_991": 991,
      "token_992": 992,
      "token_993": 993,
      "token_994": 994,
      "token_995": 995,
      "token_996": 996,
      "token_997": 997,
      "token_998": 998,
      "token_999": 999,
      "token_1000": 1000,
      "token_1001": 1001,
      "token_1002": 1002,
      "token_1003": 1003,
      "token_1004": 1004,
      "token_1005": 1005,
      "token_1006": 1006,
      "token_1007": 1007,
      "token_1008": 1008,
      "token_1009": 1009,
      "token_1010": 1010,
      "token_1011": 1011,
      "token_1012": 1012,
      "token_1013": 1013,
      "token_1014": 1014,
      "token_1015": 1015,
      "token_1016": 1016,
      "token_1017": 1017,
      "token_1018": 1018,
      "token_1019": 1019,
      "token_1020": 1020,
      "token_1021": 1021,
      "token_1022": 1022,
      "token_1023": 1023,
      "token_1024": 1024,
      "token_1025": 1025,
      "token_1026": 1026,
      "token_1027": 1027,
      "token_1028": 1028,
      "token_1029": 1029,
      "token_1030": 1030,
      "token_1031": 1031,
      "token_1032": 1032,
      "token_1033": 1033,
      "token_1034": 1034,
      "token_1035": 1035,
      "token_1036": 1036,
      "token_1037": 1037,
      "token_1038": 1038,
      "token_1039": 1039,
      "token_1040": 1040,
      "token_1041": 1041,
      "token_1042": 1042,
      "token_1043": 1043,
      "token_1044": 1044,
      "token_1045": 1045,
      "token_1046": 1046,
      "token_1047": 1047,
      "token_1048": 1048,
      "token_1049": 1049,
      "token_1050": 1050,
      "token_1051": 1051,
      "token_1052": 1052,
      "token_1053": 1053,
      "token_1054": 1054,
      "token_1055": 1055,
      "token_1056": 1056,
      "token_1057": 1057,
      "token_1058": 1058,
      "token_1059": 1059,
      "token_1060": 1060,
      "token_1061": 1061,
      "token_1062": 1062,
      "token_1063": 1063,
      "token_1064": 1064,
      "token_1065": 1065,
      "token_1066": 1066,
      "token_1067": 1067,
      "token_1068": 1068,
      "token_1069": 1069,
      "token_1070": 1070,
      "token_1071": 1071,
      "token_1072": 1072,
      "token_1073": 1073,
      "token_1074": 1074,
      "token_1075": 1075,
      "token_1076": 1076,
      "token_1077": 1077,
      "token_1078": 1078,
      "token_1079": 1079,
      "token_1080": 1080,
      "token_1081": 1081,
      "token_1082": 1082,
      "token_1083": 1083,
      "token_1084": 1084,
      "token_1085": 1085,
      "token_1086": 1086,
      "token_1087": 1087,
      "token_1088": 1088,
      "token_1089": 1089,
      "token_1090": 1090,
      "token_1091": 1091,
      "token_1092": 1092,
      "token_1093": 1093,
      "token_1094": 1094,
      "token_1095": 1095,
      "token_1096": 1096,
      "token_1097": 1097,
      "token_1098": 1098,
      "token_1099": 1099,
      "token_1100": 1100,
      "token_1101": 1101,
      "token_1102": 1102,
      "token_1103": 1103,
      "token_1104": 1104,
      "token_1105": 1105,
      "token_1106": 1106,
      "token_1107": 1107,
      "token_1108": 1108,
      "token_1109": 1109,
      "token_1110": 1110,
      "token_1111": 1111,
      "token_1112": 1112,
      "token_1113": 1113,
      "token_1114": 1114,
      "token_1115": 1115,
      "token_1116": 1116,
      "token_1117": 1117,
      "token_1118": 1118,
      "token_1119": 1119,
      "token_1120": 1120,
      "token_1121": 1121,
      "token_1122": 1122,
      "token_1123": 1123,
      "token_1124": 1124,
      "token_1125": 1125,
      "token_1126": 1126,
      "token_1127": 1127,
      "token_1128": 1128,
      "token_1129": 1129,
      "token_1130": 1130,
      "token_1131": 1131,
      "token_1132": 1132,
      "token_1133": 1133,
      "token_1134": 1134,
      "token_1135": 1135,
      "token_1136": 1136,
      "token_1137": 1137,
      "token_1138": 1138,
      "token_1139": 1139,
      "token_1140": 1140,
      "token_1141": 1141,
      "token_1142": 1142,
      "token_1143": 1143,
      "token_1144": 1144,
      "token_1145": 1145,
      "token_1146": 1146,
      "token_1147": 1147,
      "token_1148": 1148,
      "token_1149": 1149,
      "token_1150": 1150,
      "token_1151": 1151,
      "token_1152": 1152,
      "token_1153": 1153,
      "token_1154": 1154,
      "token_1155": 1155,
      "token_1156": 1156,
      "token_1157": 1157,
      "token_1158": 1158,
      "token_1159": 1159,
      "token_1160": 1160,
      "token_1161": 1161,
      "token_1162": 1162,
      "token_1163": 1163,
      "token_1164": 1164,
      "token_1165": 1165,
      "token_1166": 1166,
      "token_1167": 1167,
      "token_1168": 1168,
      "token_1169": 1169,
      "token_1170": 1170,
      "token_1171": 1171,
      "token_1172": 1172,
      "token_1173": 1173,
      "token_1174": 1174,
      "token_1175": 1175,
      "token_1176": 1176,
      "token_1177": 1177,
      "token_1178": 1178,
      "token_1179": 1179,
      "token_1180": 1180,
      "token_1181": 1181,
      "token_1182": 1182,
      "token_1183": 1183,
      "token_1184": 1184,
      "token_1185": 1185,
      "token_1186": 1186,
      "token_1187": 1187,
      "token_1188": 1188,
      "token_1189": 1189,
      "token_1190": 1190,
      "token_1191": 1191,
      "token_1192": 1192,
      "token_1193": 1193,
      "token_1194": 1194,
      "token_1195": 1195,
      "token_1196": 1196,
      "token_1197": 1197,
      "token_1198": 1198,
      "token_1199": 1199,
      "token_1200": 1200,
      "token_1201": 1201,
      "token_1202": 1202,
      "token_1203": 1203,
      "token_1204": 1204,
      "token_1205": 1205,
      "token_1206": 1206,
      "token_1207": 1207,
      "token_1208": 1208,
      "token_1209": 1209,
      "token_1210": 1210,
      "token_1211": 1211,
      "token_1212": 1212,
      "token_1213": 1213,
      "token_1214": 1214,
      "token_1215": 1215,
      "token_1216": 1216,
      "token_1217": 1217,
      "token_1218": 1218,
      "token_1219": 1219,
      "token_1220": 1220,
      "token_1221": 1221,
      "token_1222": 1222,
      "token_1223": 1223,
      "token_1224": 1224,
      "token_1225": 1225,
      "token_1226": 1226,
      "token_1227": 1227,
      "token_1228": 1228,
      "token_1229": 1229,
      "token_1230": 1230,
      "token_1231": 1231,
      "token_1232": 1232,
      "token_1233": 1233,
      "token_1234": 1234,
      "token_1235": 1235,
      "token_1236": 1236,
      "token_1237": 1237,
      "token_1238": 1238,
      "token_1239": 1239,
      "token_1240": 1240,
      "token_1241": 1241,
      "token_1242": 1242,
      "token_1243": 1243,
      "token_1244": 1244,
      "token_1245": 1245,
      "token_1246": 1246,
      "token_1247": 1247,
      "token_1248": 1248,
      "token_1249": 1249,
      "token_1250": 1250,
      "token_1251": 1251,
      "token_1252": 1252,
      "token_1253": 1253,
      "token_1254": 1254,
      "token_1255": 1255,
      "token_1256": 1256,
      "token_1257": 1257,
      "token_1258": 1258,
      "token_1259": 1259,
      "token_1260": 1260,
      "token_1261": 1261,
      "token_1262": 1262,
      "token_1263": 1263,
      "token_1264": 1264,
      "token_1265": 1265,
      "token_1266": 1266,
      "token_1267": 1267,
      "token_1268": 1268,
      "token_1269": 1269,
      "token_1270": 1270,
      "token_1271": 1271,
      "token_1272": 1272,
      "token_1273": 1273,
      "token_1274": 1274,
      "token_1275": 1275,
      "token_1276": 1276,
      "token_1277": 1277,
      "token_1278": 1278,
      "token_1279": 1279,
      "token_1280": 1280,
      "token_1281": 1281,
      "token_1282": 1282,
      "token_1283": 1283,
      "token_1284": 1284,
      "token_1285": 1285,
      "token_1286": 1286,
      "token_1287": 1287,
      "token_1288": 1288,
      "token_1289": 1289,
      "token_1290": 1290,
      "token_1291": 1291,
      "token_1292": 1292,
      "token_1293": 1293,
      "token_1294": 1294,
      "token_1295": 1295,
      "token_1296": 1296,
      "token_1297": 1297,
      "token_1298": 1298,
      "token_1299": 1299,
      "token_1300": 1300,
      "token_1301": 1301,
      "token_1302": 1302,
      "token_1303": 1303,
      "token_1304": 1304,
      "token_1305": 1305,
      "token_1306": 1306,
      "token_1307": 1307,
      "token_1308": 1308,
      "token_1309": 1309,
      "token_1310": 1310,
      "token_1311": 1311,
      "token_1312": 1312,
      "token_1313": 1313,
      "token_1314": 1314,
      "token_1315": 1315,
      "token_1316": 1316,
      "token_1317": 1317,
      "token_1318": 1318,
      "token_1319": 1319,
      "token_1320": 1320,
      "token_1321": 1321,
      "token_1322": 1322,
      "token_1323": 1323,
      "token_1324": 1324,
      "token_1325": 1325,
      "token_1326": 1326,
      "token_1327": 1327,
      "token_1328": 1328,
      "token_1329": 1329,
      "token_1330": 1330,
      "token_1331": 1331,
      "token_1332": 1332,
      "token_1333": 1333,
      "token_1334": 1334,
      "token_1335": 1335,
      "token_1336": 1336,
      "token_1337": 1337,
      "token_1338": 1338,
      "token_1339": 1339,
      "token_1340": 1340,
      "token_1341": 1341,
      "token_1342": 1342,
      "token_1343": 1343,
      "token_1344": 1344,
      "token_1345": 1345,
      "token_1346": 1346,
      "token_1347": 1347,
      "token_1348": 1348,
      "token_1349": 1349,
      "token_1350": 1350,
      "token_1351": 1351,
      "token_1352": 1352,
      "token_1353": 1353,
      "token_1354": 1354,
      "token_1355": 1355,
      "token_1356": 1356,
      "token_1357": 1357,
      "token_1358": 1358,
      "token_1359": 1359,
      "token_1360": 1360,
      "token_1361": 1361,
      "token_1362": 1362,
      "token_1363": 1363,
      "token_1364": 1364,
      "token_1365": 1365,
      "token_1366": 1366,
      "token_1367": 1367,
      "token_1368": 1368,
      "token_1369": 1369,
      "token_1370": 1370,
      "token_1371": 1371,
      "token_1372": 1372,
      "token_1373": 1373,
      "token_1374": 1374,
      "token_1375": 1375,
      "token_1376": 1376,
      "token_1377": 1377,
      "token_1378": 1378,
      "token_1379": 1379,
      "token_1380": 1380,
      "token_1381": 1381,
      "token_1382": 1382,
      "token_1383": 1383,
      "token_1384": 1384,
      "token_1385": 1385,
      "token_1386": 1386,
      "token_1387": 1387,
      "token_1388": 1388,
      "token_1389": 1389,
      "token_1390": 1390,
      "token_1391": 1391,
      "token_1392": 1392,
      "token_1393": 1393,
      "token_1394": 1394,
      "token_1395": 1395,
      "token_1396": 1396,
      "token_1397": 1397,
      "token_1398": 1398,
      "token_1399": 1399,
      "token_1400": 1400,
      "token_1401": 1401,
      "token_1402": 1402,
      "token_1403": 1403,
      "token_1404": 1404,
      "token_1405": 1405,
      "token_1406": 1406,
      "token_1407": 1407,
      "token_1408": 1408,
      "token_1409": 1409,
      "token_1410": 1410,
      "token_1411": 1411,
      "token_1412": 1412,
      "token_1413": 1413,
      "token_1414": 1414,
      "token_1415": 1415,
      "token_1416": 1416,
      "token_1417": 1417,
      "token_1418": 1418,
      "token_1419": 1419,
      "token_1420": 1420,
      "token_1421": 1421,
      "token_1422": 1422,
      "token_1423": 1423,
      "token_1424": 1424,
      "token_1425": 1425,
      "token_1426": 1426,
      "token_1427": 1427,
      "token_1428": 1428,
      "token_1429": 1429,
      "token_1430": 1430,
      "token_1431": 1431,
      "token_1432": 1432,
      "token_1433": 1433,
      "token_1434": 1434,
      "token_1435": 1435,
      "token_1436": 1436,
      "token_1437": 1437,
      "token_1438": 1438,
      "token_1439": 1439,
      "token_1440": 1440,
      "token_1441": 1441,
      "token_1442": 1442,
      "token_1443": 1443,
      "token_1444": 1444,
      "token_1445": 1445,
      "token_1446": 1446,
      "token_1447": 1447,
      "token_1448": 1448,
      "token_1449": 1449,
      "token_1450": 1450,
      "token_1451": 1451,
      "token_1452": 1452,
      "token_1453": 1453,
      "token_1454": 1454,
      "token_1455": 1455,
      "token_1456": 1456,
      "token_1457": 1457,
      "token_1458": 1458,
      "token_1459": 1459,
      "token_1460": 1460,
      "token_1461": 1461,
      "token_1462": 1462,
      "token_1463": 1463,
      "token_1464": 1464,
      "token_1465": 1465,
      "token_1466": 1466,
      "token_1467": 1467,
      "token_1468": 1468,
      "token_1469": 1469,
      "token_1470": 1470,
      "token_1471": 1471,
      "token_1472": 1472,
      "token_1473": 1473,
      "token_1474": 1474,
      "token_1475": 1475,
      "token_1476": 1476,
      "token_1477": 1477,
      "token_1478": 1478,
      "token_1479": 1479,
      "token_1480": 1480,
      "token_1481": 1481,
      "token_1482": 1482,
      "token_1483": 1483,
      "token_1484": 1484,
      "token_1485": 1485,
      "token_1486": 1486,
      "token_1487": 1487,
      "token_1488": 1488,
      "token_1489": 1489,
      "token_1490": 1490,
      "token_1491": 1491,
      "token_1492": 1492,
      "token_1493": 1493,
      "token_1494": 1494,
      "token_1495": 1495,
      "token_1496": 1496,
      "token_1497": 1497,
      "token_1498": 1498,
      "token_1499": 1499,
      "token_1500": 1500,
      "token_1501": 1501,
      "token_1502": 1502,
      "token_1503": 1503,
      "token_1504": 1504,
      "token_1505": 1505,
      "token_1506": 1506,
      "token_1507": 1507,
      "token_1508": 1508,
      "token_1509": 1509,
      "token_1510": 1510,
      "token_1511": 1511,
      "token_1512": 1512,
      "token_1513": 1513,
      "token_1514": 1514,
      "token_1515": 1515,
      "token_1516": 1516,
      "token_1517": 1517,
      "token_1518": 1518,
      "token_1519": 1519,
      "token_1520": 1520,
      "token_1521": 1521,
      "token_1522": 1522,
      "token_1523": 1523,
      "token_1524": 1524,
      "token_1525": 1525,
      "token_1526": 1526,
      "token_1527": 1527,
      "token_1528": 1528,
      "token_1529": 1529,
      "token_1530": 1530,
      "token_1531": 1531,
      "token_1532": 1532,
      "token_1533": 1533,
      "token_1534": 1534,
      "token_1535": 1535,
      "token_1536": 1536,
      "token_1537": 1537,
      "token_1538": 1538,
      "token_1539": 1539,
      "token_1540": 1540,
      "token_1541": 1541,
      "token_1542": 1542,
      "token_1543": 1543,
      "token_1544": 1544,
      "token_1545": 1545,
      "token_1546": 1546,
      "token_1547": 1547,
      "token_1548": 1548,
      "token_1549": 1549,
      "token_1550": 1550,
      "token_1551": 1551,
      "token_1552": 1552,
      "token_1553": 1553,
      "token_1554": 1554,
      "token_1555": 1555,
      "token_1556": 1556,
      "token_1557": 1557,
      "token_1558": 1558,
      "token_1559": 1559,
      "token_1560": 1560,
      "token_1561": 1561,
      "token_1562": 1562,
      "token_1563": 1563,
      "token_1564": 1564,
      "token_1565": 1565,
      "token_1566": 1566,
      "token_1567": 1567,
      "token_1568": 1568,
      "token_1569": 1569,
      "token_1570": 1570,
      "token_1571": 1571,
      "token_1572": 1572,
      "token_1573": 1573,
      "token_1574": 1574,
      "token_1575": 1575,
      "token_1576": 1576,
      "token_1577": 1577,
      "token_1578": 1578,
      "token_1579": 1579,
      "token_1580": 1580,
      "token_1581": 1581,
      "token_1582": 1582,
      "token_1583": 1583,
      "token_1584": 1584,
      "token_1585": 1585,
      "token_1586": 1586,
      "token_1587": 1587,
      "token_1588": 1588,
      "token_1589": 1589,
      "token_1590": 1590,
      "token_1591": 1591,
      "token_1592": 1592,
      "token_1593": 1593,
      "token_1594": 1594,
      "token_1595": 1595,
      "token_1596": 1596,
      "token_1597": 1597,
      "token_1598": 1598,
      "token_1599": 1599,
      "token_1600": 1600,
      "token_1601": 1601,
      "token_1602": 1602,
      "token_1603": 1603,
      "token_1604": 1604,
      "token_1605": 1605,
      "token_1606": 1606,
      "token_1607": 1607,
      "token_1608": 1608,
      "token_1609": 1609,
      "token_1610": 1610,
      "token_1611": 1611,
      "token_1612": 1612,
      "token_1613": 1613,
      "token_1614": 1614,
      "token_1615": 1615,
      "token_1616": 1616,
      "token_1617": 1617,
      "token_1618": 1618,
      "token_1619": 1619,
      "token_1620": 1620,
      "token_1621": 1621,
      "token_1622": 1622,
      "token_1623": 1623,
      "token_1624": 1624,
      "token_1625": 1625,
      "token_1626": 1626,
      "token_1627": 1627,
      "token_1628": 1628,
      "token_1629": 1629,
      "token_1630": 1630,
      "token_1631": 1631,
      "token_1632": 1632,
      "token_1633": 1633,
      "token_1634": 1634,
      "token_1635": 1635,
      "token_1636": 1636,
      "token_1637": 1637,
      "token_1638": 1638,
      "token_1639": 1639,
      "token_1640": 1640,
      "token_1641": 1641,
      "token_1642": 1642,
      "token_1643": 1643,
      "token_1644": 1644,
      "token_1645": 1645,
      "token_1646": 1646,
      "token_1647": 1647,
      "token_1648": 1648,
      "token_1649": 1649,
      "token_1650": 1650,
      "token_1651": 1651,
      "token_1652": 1652,
      "token_1653": 1653,
      "token_1654": 1654,
      "token_1655": 1655,
      "token_1656": 1656,
      "token_1657": 1657,
      "token_1658": 1658,
      "token_1659": 1659,
      "token_1660": 1660,
      "token_1661": 1661,
      "token_1662": 1662,
      "token_1663": 1663,
      "token_1664": 1664,
      "token_1665": 1665,
      "token_1666": 1666,
      "token_1667": 1667,
      "token_1668": 1668,
      "token_1669": 1669,
      "token_1670": 1670,
      "token_1671": 1671,
      "token_1672": 1672,
      "token_1673": 1673,
      "token_1674": 1674,
      "token_1675": 1675,
      "token_1676": 1676,
      "token_1677": 1677,
      "token_1678": 1678,
      "token_1679": 1679,
      "token_1680": 1680,
      "token_1681": 1681,
      "token_1682": 1682,
      "token_1683": 1683,
      "token_1684": 1684,
      "token_1685": 1685,
      "token_1686": 1686,
      "token_1687": 1687,
      "token_1688": 1688,
      "token_1689": 1689,
      "token_1690": 1690,
      "token_1691": 1691,
      "token_1692": 1692,
      "token_1693": 1693,
      "token_1694": 1694,
      "token_1695": 1695,
      "token_1696": 1696,
      "token_1697": 1697,
      "token_1698": 1698,
      "token_1699": 1699,
      "token_1700": 1700,
      "token_1701": 1701,
      "token_1702": 1702,
      "token_1703": 1703,
      "token_1704": 1704,
      "token_1705": 1705,
      "token_1706": 1706,
      "token_1707": 1707,
      "token_1708": 1708,
      "token_1709": 1709,
      "token_1710": 1710,
      "token_1711": 1711,
      "token_1712": 1712,
      "token_1713": 1713,
      "token_1714": 1714,
      "token_1715": 1715,
      "token_1716": 1716,
      "token_1717": 1717,
      "token_1718": 1718,
      "token_1719": 1719,
      "token_1720": 1720,
      "token_1721": 1721,
      "token_1722": 1722,
      "token_1723": 1723,
      "token_1724": 1724,
      "token_1725": 1725,
      "token_1726": 1726,
      "token_1727": 1727,
      "token_1728": 1728,
      "token_1729": 1729,
      "token_1730": 1730,
      "token_1731": 1731,
      "token_1732": 1732,
      "token_1733": 1733,
      "token_1734": 1734,
      "token_1735": 1735,
      "token_1736": 1736,
      "token_1737": 1737,
      "token_1738": 1738,
      "token_1739": 1739,
      "token_1740": 1740,
      "token_1741": 1741,
      "token_1742": 1742,
      "token_1743": 1743,
      "token_1744": 1744,
      "token_1745": 1745,
      "token_1746": 1746,
      "token_1747": 1747,
      "token_1748": 1748,
      "token_1749": 1749,
      "token_1750": 1750,
      "token_1751": 1751,
      "token_1752": 1752,
      "token_1753": 1753,
      "token_1754": 1754,
      "token_1755": 1755,
      "token_1756": 1756,
      "token_1757": 1757,
      "token_1758": 1758,
      "token_1759": 1759,
      "token_1760": 1760,
      "token_1761": 1761,
      "token_1762": 1762,
      "token_1763": 1763,
      "token_1764": 1764,
      "token_1765": 1765,
      "token_1766": 1766,
      "token_1767": 1767,
      "token_1768": 1768,
      "token_1769": 1769,
      "token_1770": 1770,
      "token_1771": 1771,
      "token_1772": 1772,
      "token_1773": 1773,
      "token_1774": 1774,
      "token_1775": 1775,
      "token_1776": 1776,
      "token_1777": 1777,
      "token_1778": 1778,
      "token_1779": 1779,
      "token_1780": 1780,
      "token_1781": 1781,
      "token_1782": 1782,
      "token_1783": 1783,
      "token_1784": 1784,
      "token_1785": 1785,
      "token_1786": 1786,
      "token_1787": 1787,
      "token_1788": 1788,
      "token_1789": 1789,
      "token_1790": 1790,
      "token_1791": 1791,
      "token_1792": 1792,
      "token_1793": 1793,
      "token_1794": 1794,
      "token_1795": 1795,
      "token_1796": 1796,
      "token_1797": 1797,
      "token_1798": 1798,
      "token_1799": 1799,
      "token_1800": 1800,
      "token_1801": 1801,
      "token_1802": 1802,
      "token_1803": 1803,
      "token_1804": 1804,
      "token_1805": 1805,
      "token_1806": 1806,
      "token_1807": 1807,
      "token_1808": 1808,
      "token_1809": 1809,
      "token_1810": 1810,
      "token_1811": 1811,
      "token_1812": 1812,
      "token_1813": 1813,
      "token_1814": 1814,
      "token_1815": 1815,
      "token_1816": 1816,
      "token_1817": 1817,
      "token_1818": 1818,
      "token_1819": 1819,
      "token_1820": 1820,
      "token_1821": 1821,
      "token_1822": 1822,
      "token_1823": 1823,
      "token_1824": 1824,
      "token_1825": 1825,
      "token_1826": 1826,
      "token_1827": 1827,
      "token_1828": 1828,
      "token_1829": 1829,
      "token_1830": 1830,
      "token_1831": 1831,
      "token_1832": 1832,
      "token_1833": 1833,
      "token_1834": 1834,
      "token_1835": 1835,
      "token_1836": 1836,
      "token_1837": 1837,
      "token_1838": 1838,
      "token_1839": 1839,
      "token_1840": 1840,
      "token_1841": 1841,
      "token_1842": 1842,
      "token_1843": 1843,
      "token_1844": 1844,
      "token_1845": 1845,
      "token_1846": 1846,
      "token_1847": 1847,
      "token_1848": 1848,
      "token_1849": 1849,
      "token_1850": 1850,
      "token_1851": 1851,
      "token_1852": 1852,
      "token_1853": 1853,
      "token_1854": 1854,
      "token_1855": 1855,
      "token_1856": 1856,
      "token_1857": 1857,
      "token_1858": 1858,
      "token_1859": 1859,
      "token_1860": 1860,
      "token_1861": 1861,
      "token_1862": 1862,
      "token_1863": 1863,
      "token_1864": 1864,
      "token_1865": 1865,
      "token_1866": 1866,
      "token_1867": 1867,
      "token_1868": 1868,
      "token_1869": 1869,
      "token_1870": 1870,
      "token_1871": 1871,
      "token_1872": 1872,
      "token_1873": 1873,
      "token_1874": 1874,
      "token_1875": 1875,
      "token_1876": 1876,
      "token_1877": 1877,
      "token_1878": 1878,
      "token_1879": 1879,
      "token_1880": 1880,
      "token_1881": 1881,
      "token_1882": 1882,
      "token_1883": 1883,
      "token_1884": 1884,
      "token_1885": 1885,
      "token_1886": 1886,
      "token_1887": 1887,
      "token_1888": 1888,
      "token_1889": 1889,
      "token_1890": 1890,
      "token_1891": 1891,
      "token_1892": 1892,
      "token_1893": 1893,
      "token_1894": 1894,
      "token_1895": 1895,
      "token_1896": 1896,
      "token_1897": 1897,
      "token_1898": 1898,
      "token_1899": 1899,
      "token_1900": 1900,
      "token_1901": 1901,
      "token_1902": 1902,
      "token_1903": 1903,
      "token_1904": 1904,
      "token_1905": 1905,
      "token_1906": 1906,
      "token_1907": 1907,
      "token_1908": 1908,
      "token_1909": 1909,
      "token_1910": 1910,
      "token_1911": 1911,
      "token_1912": 1912,
      "token_1913": 1913,
      "token_1914": 1914,
      "token_1915": 1915,
      "token_1916": 1916,
      "token_1917": 1917,
      "token_1918": 1918,
      "token_1919": 1919,
      "token_1920": 1920,
      "token_1921": 1921,
      "token_1922": 1922,
      "token_1923": 1923,
      "token_1924": 1924,
      "token_1925": 1925,
      "token_1926": 1926,
      "token_1927": 1927,
      "token_1928": 1928,
      "token_1929": 1929,
      "token_1930": 1930,
      "token_1931": 1931,
      "token_1932": 1932,
      "token_1933": 1933,
      "token_1934": 1934,
      "token_1935": 1935,
      "token_1936": 1936,
      "token_1937": 1937,
      "token_1938": 1938,
      "token_1939": 1939,
      "token_1940": 1940,
      "token_1941": 1941,
      "token_1942": 1942,
      "token_1943": 1943,
      "token_1944": 1944,
      "token_1945": 1945,
      "token_1946": 1946,
      "token_1947": 1947,
      "token_1948": 1948,
      "token_1949": 1949,
      "token_1950": 1950,
      "token_1951": 1951,
      "token_1952": 1952,
      "token_1953": 1953,
      "token_1954": 1954,
      "token_1955": 1955,
      "token_1956": 1956,
      "token_1957": 1957,
      "token_1958": 1958,
      "token_1959": 1959,
      "token_1960": 1960,
      "token_1961": 1961,
      "token_1962": 1962,
      "token_1963": 1963,
      "token_1964": 1964,
      "token_1965": 1965,
      "token_1966": 1966,
      "token_1967": 1967,
      "token_1968": 1968,
      "token_1969": 1969,
      "token_1970": 1970,
      "token_1971": 1971,
      "token_1972": 1972,
      "token_1973": 1973,
      "token_1974": 1974,
      "token_1975": 1975,
      "token_1976": 1976,
      "token_1977": 1977,
      "token_1978": 1978,
      "token_1979": 1979,
      "token_1980": 1980,
      "token_1981": 1981,
      "token_1982": 1982,
      "token_1983": 1983,
      "token_1984": 1984,
      "token_1985": 1985,
      "token_1986": 1986,
      "token_1987": 1987,
      "token_1988": 1988,
      "token_1989": 1989,
      "token_1990": 1990,
      "token_1991": 1991,
      "token_1992": 1992,
      "token_1993": 1993,
      "token_1994": 1994,
      "token_1995": 1995,
      "token_1996": 1996,
      "token_1997": 1997,
      "token_1998": 1998,
      "token_1999": 1999,
      "token_2000": 2000,
      "token_2001": 2001,
      "token_2002": 2002,
      "token_2003": 2003,
      "token_2004": 2004,
      "token_2005": 2005,
      "token_2006": 2006,
      "token_2007": 2007,
      "token_2008": 2008,
      "token_2009": 2009,
      "token_2010": 2010,
      "token_2011": 2011,
      "token_2012": 2012,
      "token_2013": 2013,
      "token_2014": 2014,
      "token_2015": 2015,
      "token_2016": 2016,
      "token_2017": 2017,
      "token_2018": 2018,
      "token_2019": 2019,
      "token_2020": 2020,
      "token_2021": 2021,
      "token_2022": 2022,
      "token_2023": 2023,
      "token_2024": 2024,
      "token_2025": 2025,
      "token_2026": 2026,
      "token_2027": 2027,
      "token_2028": 2028,
      "token_2029": 2029,
      "token_2030": 2030,
      "token_2031": 2031,
      "token_2032": 2032,
      "token_2033": 2033,
      "token_2034": 2034,
      "token_2035": 2035,
      "token_2036": 2036,
      "token_2037": 2037,
      "token_2038": 2038,
      "token_2039": 2039,
      "token_2040": 2040,
      "token_2041": 2041,
      "token_2042": 2042,
      "token_2043": 2043,
      "token_2044": 2044,
      "token_2045": 2045,
      "token_2046": 2046,
      "token_2047": 2047,
      "token_2048": 2048,
      "token_2049": 2049,
      "token_2050": 2050,
      "token_2051": 2051,
      "token_2052": 2052,
      "token_2053": 2053,
      "token_2054": 2054,
      "token_2055": 2055,
      "token_2056": 2056,
      "token_2057": 2057,
      "token_2058": 2058,
      "token_2059": 2059,
      "token_2060": 2060,
      "token_2061": 2061,
      "token_2062": 2062,
      "token_2063": 2063,
      "token_2064": 2064,
      "token_2065": 2065,
      "token_2066": 2066,
      "token_2067": 2067,
      "token_2068": 2068,
      "token_2069": 2069,
      "token_2070": 2070,
      "token_2071": 2071,
      "token_2072": 2072,
      "token_2073": 2073,
      "token_2074": 2074,
      "token_2075": 2075,
      "token_2076": 2076,
      "token_2077": 2077,
      "token_2078": 2078,
      "token_2079": 2079,
      "token_2080": 2080,
      "token_2081": 2081,
      "token_2082": 2082,
      "token_2083": 2083,
      "token_2084": 2084,
      "token_2085": 2085,
      "token_2086": 2086,
      "token_2087": 2087,
      "token_2088": 2088,
      "token_2089": 2089,
      "token_2090": 2090,
      "token_2091": 2091,
      "token_2092": 2092,
      "token_2093": 2093,
      "token_2094": 2094,
      "token_2095": 2095,
      "token_2096": 2096,
      "token_2097": 2097,
      "token_2098": 2098,
      "token_2099": 2099,
      "token_2100": 2100,
      "token_2101": 2101,
      "token_2102": 2102,
      "token_2103": 2103,
      "token_2104": 2104,
      "token_2105": 2105,
      "token_2106": 2106,
      "token_2107": 2107,
      "token_2108": 2108,
      "token_2109": 2109,
      "token_2110": 2110,
      "token_2111": 2111,
      "token_2112": 2112,
      "token_2113": 2113,
      "token_2114": 2114,
      "token_2115": 2115,
      "token_2116": 2116,
      "token_2117": 2117,
      "token_2118": 2118,
      "token_2119": 2119,
      "token_2120": 2120,
      "token_2121": 2121,
      "token_2122": 2122,
      "token_2123": 2123,
      "token_2124": 2124,
      "token_2125": 2125,
      "token_2126": 2126,
      "token_2127": 2127,
      "token_2128": 2128,
      "token_2129": 2129,
      "token_2130": 2130,
      "token_2131": 2131,
      "token_2132": 2132,
      "token_2133": 2133,
      "token_2134": 2134,
      "token_2135": 2135,
      "token_2136": 2136,
      "token_2137": 2137,
      "token_2138": 2138,
      "token_2139": 2139,
      "token_2140": 2140,
      "token_2141": 2141,
      "token_2142": 2142,
      "token_2143": 2143,
      "token_2144": 2144,
      "token_2145": 2145,
      "token_2146": 2146,
      "token_2147": 2147,
      "token_2148": 2148,
      "token_2149": 2149,
      "token_2150": 2150,
      "token_2151": 2151,
      "token_2152": 2152,
      "token_2153": 2153,
      "token_2154": 2154,
      "token_2155": 2155,
      "token_2156": 2156,
      "token_2157": 2157,
      "token_2158": 2158,
      "token_2159": 2159,
      "token_2160": 2160,
      "token_2161": 2161,
      "token_2162": 2162,
      "token_2163": 2163,
      "token_2164": 2164,
      "token_2165": 2165,
      "token_2166": 2166,
      "token_2167": 2167,
      "token_2168": 2168,
      "token_2169": 2169,
      "token_2170": 2170,
      "token_2171": 2171,
      "token_2172": 2172,
      "token_2173": 2173,
      "token_2174": 2174,
      "token_2175": 2175,
      "token_2176": 2176,
      "token_2177": 2177,
      "token_2178": 2178,
      "token_2179": 2179,
      "token_2180": 2180,
      "token_2181": 2181,
      "token_2182": 2182,
      "token_2183": 2183,
      "token_2184": 2184,
      "token_2185": 2185,
      "token_2186": 2186,
      "token_2187": 2187,
      "token_2188": 2188,
      "token_2189": 2189,
      "token_2190": 2190,
      "token_2191": 2191,
      "token_2192": 2192,
      "token_2193": 2193,
      "token_2194": 2194,
      "token_2195": 2195,
      "token_2196": 2196,
      "token_2197": 2197,
      "token_2198": 2198,
      "token_2199": 2199,
      "token_2200": 2200,
      "token_2201": 2201,
      "token_2202": 2202,
      "token_2203": 2203,
      "token_2204": 2204,
      "token_2205": 2205,
      "token_2206": 2206,
      "token_2207": 2207,
      "token_2208": 2208,
      "token_2209": 2209,
      "token_2210": 2210,
      "token_2211": 2211,
      "token_2212": 2212,
      "token_2213": 2213,
      "token_2214": 2214,
      "token_2215": 2215,
      "token_2216": 2216,
      "token_2217": 2217,
      "token_2218": 2218,
      "token_2219": 2219,
      "token_2220": 2220,
      "token_2221": 2221,
      "token_2222": 2222,
      "token_2223": 2223,
      "token_2224": 2224,
      "token_2225": 2225,
      "token_2226": 2226,
      "token_2227": 2227,
      "token_2228": 2228,
      "token_2229": 2229,
      "token_2230": 2230,
      "token_2231": 2231,
      "token_2232": 2232,
      "token_2233": 2233,
      "token_2234": 2234,
      "token_2235": 2235,
      "token_2236": 2236,
      "token_2237": 2237,
      "token_2238": 2238,
      "token_2239": 2239,
      "token_2240": 2240,
      "token_2241": 2241,
      "token_2242": 2242,
      "token_2243": 2243,
      "token_2244": 2244,
      "token_2245": 2245,
      "token_2246": 2246,
      "token_2247": 2247,
      "token_2248": 2248,
      "token_2249": 2249,
      "token_2250": 2250,
      "token_2251": 2251,
      "token_2252": 2252,
      "token_2253": 2253,
      "token_2254": 2254,
      "token_2255": 2255,
      "token_2256": 2256,
      "token_2257": 2257,
      "token_2258": 2258,
      "token_2259": 2259,
      "token_2260": 2260,
      "token_2261": 2261,
      "token_2262": 2262,
      "token_2263": 2263,
      "token_2264": 2264,
      "token_2265": 2265,
      "token_2266": 2266,
      "token_2267": 2267,
      "token_2268": 2268,
      "token_2269": 2269,
      "token_2270": 2270,
      "token_2271": 2271,
      "token_2272": 2272,
      "token_2273": 2273,
      "token_2274": 2274,
      "token_2275": 2275,
      "token_2276": 2276,
      "token_2277": 2277,
      "token_2278": 2278,
      "token_2279": 2279,
      "token_2280": 2280,
      "token_2281": 2281,
      "token_2282": 2282,
      "token_2283": 2283,
      "token_2284": 2284,
      "token_2285": 2285,
      "token_2286": 2286,
      "token_2287": 2287,
      "token_2288": 2288,
      "token_2289": 2289,
      "token_2290": 2290,
      "token_2291": 2291,
      "token_2292": 2292,
      "token_2293": 2293,
      "token_2294": 2294,
      "token_2295": 2295,
      "token_2296": 2296,
      "token_2297": 2297,
      "token_2298": 2298,
      "token_2299": 2299,
      "token_2300": 2300,
      "token_2301": 2301,
      "token_2302": 2302,
      "token_2303": 2303,
      "token_2304": 2304,
      "token_2305": 2305,
      "token_2306": 2306,
      "token_2307": 2307,
      "token_2308": 2308,
      "token_2309": 2309,
      "token_2310": 2310,
      "token_2311": 2311,
      "token_2312": 2312,
      "token_2313": 2313,
      "token_2314": 2314,
      "token_2315": 2315,
      "token_2316": 2316,
      "token_2317": 2317,
      "token_2318": 2318,
      "token_2319": 2319,
      "token_2320": 2320,
      "token_2321": 2321,
      "token_2322": 2322,
      "token_2323": 2323,
      "token_2324": 2324,
      "token_2325": 2325,
      "token_2326": 2326,
      "token_2327": 2327,
      "token_2328": 2328,
      "token_2329": 2329,
      "token_2330": 2330,
      "token_2331": 2331,
      "token_2332": 2332,
      "token_2333": 2333,
      "token_2334": 2334,
      "token_2335": 2335,
      "token_2336": 2336,
      "token_2337": 2337,
      "token_2338": 2338,
      "token_2339": 2339,
      "token_2340": 2340,
      "token_2341": 2341,
      "token_2342": 2342,
      "token_2343": 2343,
      "token_2344": 2344,
      "token_2345": 2345,
      "token_2346": 2346,
      "token_2347": 2347,
      "token_2348": 2348,
      "token_2349": 2349,
      "token_2350": 2350,
      "token_2351": 2351,
      "token_2352": 2352,
      "token_2353": 2353,
      "token_2354": 2354,
      "token_2355": 2355,
      "token_2356": 2356,
      "token_2357": 2357,
      "token_2358": 2358,
      "token_2359": 2359,
      "token_2360": 2360,
      "token_2361": 2361,
      "token_2362": 2362,
      "token_2363": 2363,
      "token_2364": 2364,
      "token_2365": 2365,
      "token_2366": 2366,
      "token_2367": 2367,
      "token_2368": 2368,
      "token_2369": 2369,
      "token_2370": 2370,
      "token_2371": 2371,
      "token_2372": 2372,
      "token_2373": 2373,
      "token_2374": 2374,
      "token_2375": 2375,
      "token_2376": 2376,
      "token_2377": 2377,
      "token_2378": 2378,
      "token_2379": 2379,
      "token_2380": 2380,
      "token_2381": 2381,
      "token_2382": 2382,
      "token_2383": 2383,
      "token_2384": 2384,
      "token_2385": 2385,
      "token_2386": 2386,
      "token_2387": 2387,
      "token_2388": 2388,
      "token_2389": 2389,
      "token_2390": 2390,
      "token_2391": 2391,
      "token_2392": 2392,
      "token_2393": 2393,
      "token_2394": 2394,
      "token_2395": 2395,
      "token_2396": 2396,
      "token_2397": 2397,
      "token_2398": 2398,
      "token_2399": 2399,
      "token_2400": 2400,
      "token_2401": 2401,
      "token_2402": 2402,
      "token_2403": 2403,
      "token_2404": 2404,
      "token_2405": 2405,
      "token_2406": 2406,
      "token_2407": 2407,
      "token_2408": 2408,
      "token_2409": 2409,
      "token_2410": 2410,
      "token_2411": 2411,
      "token_2412": 2412,
      "token_2413": 2413,
      "token_2414": 2414,
      "token_2415": 2415,
      "token_2416": 2416,
      "token_2417": 2417,
      "token_2418": 2418,
      "token_2419": 2419,
      "token_2420": 2420,
      "token_2421": 2421,
      "token_2422": 2422,
      "token_2423": 2423,
      "token_2424": 2424,
      "token_2425": 2425,
      "token_2426": 2426,
      "token_2427": 2427,
      "token_2428": 2428,
      "token_2429": 2429,
      "token_2430": 2430,
      "token_2431": 2431,
      "token_2432": 2432,
      "token_2433": 2433,
      "token_2434": 2434,
      "token_2435": 2435,
      "token_2436": 2436,
      "token_2437": 2437,
      "token_2438": 2438,
      "token_2439": 2439,
      "token_2440": 2440,
      "token_2441": 2441,
      "token_2442": 2442,
      "token_2443": 2443,
      "token_2444": 2444,
      "token_2445": 2445,
      "token_2446": 2446,
      "token_2447": 2447,
      "token_2448": 2448,
      "token_2449": 2449,
      "token_2450": 2450,
      "token_2451": 2451,
      "token_2452": 2452,
      "token_2453": 2453,
      "token_2454": 2454,
      "token_2455": 2455,
      "token_2456": 2456,
      "token_2457": 2457,
      "token_2458": 2458,
      "token_2459": 2459,
      "token_2460": 2460,
      "token_2461": 2461,
      "token_2462": 2462,
      "token_2463": 2463,
      "token_2464": 2464,
      "token_2465": 2465,
      "token_2466": 2466,
      "token_2467": 2467,
      "token_2468": 2468,
      "token_2469": 2469,
      "token_2470": 2470,
      "token_2471": 2471,
      "token_2472": 2472,
      "token_2473": 2473,
      "token_2474": 2474,
      "token_2475": 2475,
      "token_2476": 2476,
      "token_2477": 2477,
      "token_2478": 2478,
      "token_2479": 2479,
      "token_2480": 2480,
      "token_2481": 2481,
      "token_2482": 2482,
      "token_2483": 2483,
      "token_2484": 2484,
      "token_2485": 2485,
      "token_2486": 2486,
      "token_2487": 2487,
      "token_2488": 2488,
      "token_2489": 2489,
      "token_2490": 2490,
      "token_2491": 2491,
      "token_2492": 2492,
      "token_2493": 2493,
      "token_2494": 2494,
      "token_2495": 2495,
      "token_2496": 2496,
      "token_2497": 2497,
      "token_2498": 2498,
      "token_2499": 2499,
      "token_2500": 2500,
      "token_2501": 2501,
      "token_2502": 2502,
      "token_2503": 2503,
      "token_2504": 2504,
      "token_2505": 2505,
      "token_2506": 2506,
      "token_2507": 2507,
      "token_2508": 2508,
      "token_2509": 2509,
      "token_2510": 2510,
      "token_2511": 2511,
      "token_2512": 2512,
      "token_2513": 2513,
      "token_2514": 2514,
      "token_2515": 2515,
      "token_2516": 2516,
      "token_2517": 2517,
      "token_2518": 2518,
      "token_2519": 2519,
      "token_2520": 2520,
      "token_2521": 2521,
      "token_2522": 2522,
      "token_2523": 2523,
      "token_2524": 2524,
      "token_2525": 2525,
      "token_2526": 2526,
      "token_2527": 2527,
      "token_2528": 2528,
      "token_2529": 2529,
      "token_2530": 2530,
      "token_2531": 2531,
      "token_2532": 2532,
      "token_2533": 2533,
      "token_2534": 2534,
      "token_2535": 2535,
      "token_2536": 2536,
      "token_2537": 2537,
      "token_2538": 2538,
      "token_2539": 2539,
      "token_2540": 2540,
      "token_2541": 2541,
      "token_2542": 2542,
      "token_2543": 2543,
      "token_2544": 2544,
      "token_2545": 2545,
      "token_2546": 2546,
      "token_2547": 2547,
      "token_2548": 2548,
      "token_2549": 2549,
      "token_2550": 2550,
      "token_2551": 2551,
      "token_2552": 2552,
      "token_2553": 2553,
      "token_2554": 2554,
      "token_2555": 2555,
      "token_2556": 2556,
      "token_2557": 2557,
      "token_2558": 2558,
      "token_2559": 2559,
      "token_2560": 2560,
      "token_2561": 2561,
      "token_2562": 2562,
      "token_2563": 2563,
      "token_2564": 2564,
      "token_2565": 2565,
      "token_2566": 2566,
      "token_2567": 2567,
      "token_2568": 2568,
      "token_2569": 2569,
      "token_2570": 2570,
      "token_2571": 2571,
      "token_2572": 2572,
      "token_2573": 2573,
      "token_2574": 2574,
      "token_2575": 2575,
      "token_2576": 2576,
      "token_2577": 2577,
      "token_2578": 2578,
      "token_2579": 2579,
      "token_2580": 2580,
      "token_2581": 2581,
      "token_2582": 2582,
      "token_2583": 2583,
      "token_2584": 2584,
      "token_2585": 2585,
      "token_2586": 2586,
      "token_2587": 2587,
      "token_2588": 2588,
      "token_2589": 2589,
      "token_2590": 2590,
      "token_2591": 2591,
      "token_2592": 2592,
      "token_2593": 2593,
      "token_2594": 2594,
      "token_2595": 2595,
      "token_2596": 2596,
      "token_2597": 2597,
      "token_2598": 2598,
      "token_2599": 2599,
      "token_2600": 2600,
      "token_2601": 2601,
      "token_2602": 2602,
      "token_2603": 2603,
      "token_2604": 2604,
      "token_2605": 2605,
      "token_2606": 2606,
      "token_2607": 2607,
      "token_2608": 2608,
      "token_2609": 2609,
      "token_2610": 2610,
      "token_2611": 2611,
      "token_2612": 2612,
      "token_2613": 2613,
      "token_2614": 2614,
      "token_2615": 2615,
      "token_2616": 2616,
      "token_2617": 2617,
      "token_2618": 2618,
      "token_2619": 2619,
      "token_2620": 2620,
      "token_2621": 2621,
      "token_2622": 2622,
      "token_2623": 2623,
      "token_2624": 2624,
      "token_2625": 2625,
      "token_2626": 2626,
      "token_2627": 2627,
      "token_2628": 2628,
      "token_2629": 2629,
      "token_2630": 2630,
      "token_2631": 2631,
      "token_2632": 2632,
      "token_2633": 2633,
      "token_2634": 2634,
      "token_2635": 2635,
      "token_2636": 2636,
      "token_2637": 2637,
      "token_2638": 2638,
      "token_2639": 2639,
      "token_2640": 2640,
      "token_2641": 2641,
      "token_2642": 2642,
      "token_2643": 2643,
      "token_2644": 2644,
      "token_2645": 2645,
      "token_2646": 2646,
      "token_2647": 2647,
      "token_2648": 2648,
      "token_2649": 2649,
      "token_2650": 2650,
      "token_2651": 2651,
      "token_2652": 2652,
      "token_2653": 2653,
      "token_2654": 2654,
      "token_2655": 2655,
      "token_2656": 2656,
      "token_2657": 2657,
      "token_2658": 2658,
      "token_2659": 2659,
      "token_2660": 2660,
      "token_2661": 2661,
      "token_2662": 2662,
      "token_2663": 2663,
      "token_2664": 2664,
      "token_2665": 2665,
      "token_2666": 2666,
      "token_2667": 2667,
      "token_2668": 2668,
      "token_2669": 2669,
      "token_2670": 2670,
      "token_2671": 2671,
      "token_2672": 2672,
      "token_2673": 2673,
      "token_2674": 2674,
      "token_2675": 2675,
      "token_2676": 2676,
      "token_2677": 2677,
      "token_2678": 2678,
      "token_2679": 2679,
      "token_2680": 2680,
      "token_2681": 2681,
      "token_2682": 2682,
      "token_2683": 2683,
      "token_2684": 2684,
      "token_2685": 2685,
      "token_2686": 2686,
      "token_2687": 2687,
      "token_2688": 2688,
      "token_2689": 2689,
      "token_2690": 2690,
      "token_2691": 2691,
      "token_2692": 2692,
      "token_2693": 2693,
      "token_2694": 2694,
      "token_2695": 2695,
      "token_2696": 2696,
      "token_2697": 2697,
      "token_2698": 2698,
      "token_2699": 2699,
      "token_2700": 2700,
      "token_2701": 2701,
      "token_2702": 2702,
      "token_2703": 2703,
      "token_2704": 2704,
      "token_2705": 2705,
      "token_2706": 2706,
      "token_2707": 2707,
      "token_2708": 2708,
      "token_2709": 2709,
      "token_2710": 2710,
      "token_2711": 2711,
      "token_2712": 2712,
      "token_2713": 2713,
      "token_2714": 2714,
      "token_2715": 2715,
      "token_2716": 2716,
      "token_2717": 2717,
      "token_2718": 2718,
      "token_2719": 2719,
      "token_2720": 2720,
      "token_2721": 2721,
      "token_2722": 2722,
      "token_2723": 2723,
      "token_2724": 2724,
      "token_2725": 2725,
      "token_2726": 2726,
      "token_2727": 2727,
      "token_2728": 2728,
      "token_2729": 2729,
      "token_2730": 2730,
      "token_2731": 2731,
      "token_2732": 2732,
      "token_2733": 2733,
      "token_2734": 2734,
      "token_2735": 2735,
      "token_2736": 2736,
      "token_2737": 2737,
      "token_2738": 2738,
      "token_2739": 2739,
      "token_2740": 2740,
      "token_2741": 2741,
      "token_2742": 2742,
      "token_2743": 2743,
      "token_2744": 2744,
      "token_2745": 2745,
      "token_2746": 2746,
      "token_2747": 2747,
      "token_2748": 2748,
      "token_2749": 2749,
      "token_2750": 2750,
      "token_2751": 2751,
      "token_2752": 2752,
      "token_2753": 2753,
      "token_2754": 2754,
      "token_2755": 2755,
      "token_2756": 2756,
      "token_2757": 2757,
      "token_2758": 2758,
      "token_2759": 2759,
      "token_2760": 2760,
      "token_2761": 2761,
      "token_2762": 2762,
      "token_2763": 2763,
      "token_2764": 2764,
      "token_2765": 2765,
      "token_2766": 2766,
      "token_2767": 2767,
      "token_2768": 2768,
      "token_2769": 2769,
      "token_2770": 2770,
      "token_2771": 2771,
      "token_2772": 2772,
      "token_2773": 2773,
      "token_2774": 2774,
      "token_2775": 2775,
      "token_2776": 2776,
      "token_2777": 2777,
      "token_2778": 2778,
      "token_2779": 2779,
      "token_2780": 2780,
      "token_2781": 2781,
      "token_2782": 2782,
      "token_2783": 2783,
      "token_2784": 2784,
      "token_2785": 2785,
      "token_2786": 2786,
      "token_2787": 2787,
      "token_2788": 2788,
      "token_2789": 2789,
      "token_2790": 2790,
      "token_2791": 2791,
      "token_2792": 2792,
      "token_2793": 2793,
      "token_2794": 2794,
      "token_2795": 2795,
      "token_2796": 2796,
      "token_2797": 2797,
      "token_2798": 2798,
      "token_2799": 2799,
      "token_2800": 2800,
      "token_2801": 2801,
      "token_2802": 2802,
      "token_2803": 2803,
      "token_2804": 2804,
      "token_2805": 2805,
      "token_2806": 2806,
      "token_2807": 2807,
      "token_2808": 2808,
      "token_2809": 2809,
      "token_2810": 2810,
      "token_2811": 2811,
      "token_2812": 2812,
      "token_2813": 2813,
      "token_2814": 2814,
      "token_2815": 2815,
      "token_2816": 2816,
      "token_2817": 2817,
      "token_2818": 2818,
      "token_2819": 2819,
      "token_2820": 2820,
      "token_2821": 2821,
      "token_2822": 2822,
      "token_2823": 2823,
      "token_2824": 2824,
      "token_2825": 2825,
      "token_2826": 2826,
      "token_2827": 2827,
      "token_2828": 2828,
      "token_2829": 2829,
      "token_2830": 2830,
      "token_2831": 2831,
      "token_2832": 2832,
      "token_2833": 2833,
      "token_2834": 2834,
      "token_2835": 2835,
      "token_2836": 2836,
      "token_2837": 2837,
      "token_2838": 2838,
      "token_2839": 2839,
      "token_2840": 2840,
      "token_2841": 2841,
      "token_2842": 2842,
      "token_2843": 2843,
      "token_2844": 2844,
      "token_2845": 2845,
      "token_2846": 2846,
      "token_2847": 2847,
      "token_2848": 2848,
      "token_2849": 2849,
      "token_2850": 2850,
      "token_2851": 2851,
      "token_2852": 2852,
      "token_2853": 2853,
      "token_2854": 2854,
      "token_2855": 2855,
      "token_2856": 2856,
      "token_2857": 2857,
      "token_2858": 2858,
      "token_2859": 2859,
      "token_2860": 2860,
      "token_2861": 2861,
      "token_2862": 2862,
      "token_2863": 2863,
      "token_2864": 2864,
      "token_2865": 2865,
      "token_2866": 2866,
      "token_2867": 2867,
      "token_2868": 2868,
      "token_2869": 2869,
      "token_2870": 2870,
      "token_2871": 2871,
      "token_2872": 2872,
      "token_2873": 2873,
      "token_2874": 2874,
      "token_2875": 2875,
      "token_2876": 2876,
      "token_2877": 2877,
      "token_2878": 2878,
      "token_2879": 2879,
      "token_2880": 2880,
      "token_2881": 2881,
      "token_2882": 2882,
      "token_2883": 2883,
      "token_2884": 2884,
      "token_2885": 2885,
      "token_2886": 2886,
      "token_2887": 2887,
      "token_2888": 2888,
      "token_2889": 2889,
      "token_2890": 2890,
      "token_2891": 2891,
      "token_2892": 2892,
      "token_2893": 2893,
      "token_2894": 2894,
      "token_2895": 2895,
      "token_2896": 2896,
      "token_2897": 2897,
      "token_2898": 2898,
      "token_2899": 2899,
      "token_2900": 2900,
      "token_2901": 2901,
      "token_2902": 2902,
      "token_2903": 2903,
      "token_2904": 2904,
      "token_2905": 2905,
      "token_2906": 2906,
      "token_2907": 2907,
      "token_2908": 2908,
      "token_2909": 2909,
      "token_2910": 2910,
      "token_2911": 2911,
      "token_2912": 2912,
      "token_2913": 2913,
      "token_2914": 2914,
      "token_2915": 2915,
      "token_2916": 2916,
      "token_2917": 2917,
      "token_2918": 2918,
      "token_2919": 2919,
      "token_2920": 2920,
      "token_2921": 2921,
      "token_2922": 2922,
      "token_2923": 2923,
      "token_2924": 2924,
      "token_2925": 2925,
      "token_2926": 2926,
      "token_2927": 2927,
      "token_2928": 2928,
      "token_2929": 2929,
      "token_2930": 2930,
      "token_2931": 2931,
      "token_2932": 2932,
      "token_2933": 2933,
      "token_2934": 2934,
      "token_2935": 2935,
      "token_2936": 2936,
      "token_2937": 2937,
      "token_2938": 2938,
      "token_2939": 2939,
      "token_2940": 2940,
      "token_2941": 2941,
      "token_2942": 2942,
      "token_2943": 2943,
      "token_2944": 2944,
      "token_2945": 2945,
      "token_2946": 2946,
      "token_2947": 2947,
      "token_2948": 2948,
      "token_2949": 2949,
      "token_2950": 2950,
      "token_2951": 2951,
      "token_2952": 2952,
      "token_2953": 2953,
      "token_2954": 2954,
      "token_2955": 2955,
      "token_2956": 2956,
      "token_2957": 2957,
      "token_2958": 2958,
      "token_2959": 2959,
      "token_2960": 2960,
      "token_2961": 2961,
      "token_2962": 2962,
      "token_2963": 2963,
      "token_2964": 2964,
      "token_2965": 2965,
      "token_2966": 2966,
      "token_2967": 2967,
      "token_2968": 2968,
      "token_2969": 2969,
      "token_2970": 2970,
      "token_2971": 2971,
      "token_2972": 2972,
      "token_2973": 2973,
      "token_2974": 2974,
      "token_2975": 2975,
      "token_2976": 2976,
      "token_2977": 2977,
      "token_2978": 2978,
      "token_2979": 2979,
      "token_2980": 2980,
      "token_2981": 2981,
      "token_2982": 2982,
      "token_2983": 2983,
      "token_2984": 2984,
      "token_2985": 2985,
      "token_2986": 2986,
      "token_2987": 2987,
      "token_2988": 2988,
      "token_2989": 2989,
      "token_2990": 2990,
      "token_2991": 2991,
      "token_2992": 2992,
      "token_2993": 2993,
      "token_2994": 2994,
      "token_2995": 2995,
      "token_2996": 2996,
      "token_2997": 2997,
      "token_2998": 2998,
      "token_2999": 2999,
      "token_3000": 3000,
      "token_3001": 3001,
      "token_3002": 3002,
      "token_3003": 3003,
      "token_3004": 3004,
      "token_3005": 3005,
      "token_3006": 3006,
      "token_3007": 3007,
      "token_3008": 3008,
      "token_3009": 3009,
      "token_3010": 3010,
      "token_3011": 3011,
      "token_3012": 3012,
      "token_3013": 3013,
      "token_3014": 3014,
      "token_3015": 3015,
      "token_3016": 3016,
      "token_3017": 3017,
      "token_3018": 3018,
      "token_3019": 3019,
      "token_3020": 3020,
      "token_3021": 3021,
      "token_3022": 3022,
      "token_3023": 3023,
      "token_3024": 3024,
      "token_3025": 3025,
      "token_3026": 3026,
      "token_3027": 3027,
      "token_3028": 3028,
      "token_3029": 3029,
      "token_3030": 3030,
      "token_3031": 3031,
      "token_3032": 3032,
      "token_3033": 3033,
      "token_3034": 3034,
      "token_3035": 3035,
      "token_3036": 3036,
      "token_3037": 3037,
      "token_3038": 3038,
      "token_3039": 3039,
      "token_3040": 3040,
      "token_3041": 3041,
      "token_3042": 3042,
      "token_3043": 3043,
      "token_3044": 3044,
      "token_3045": 3045,
      "token_3046": 3046,
      "token_3047": 3047,
      "token_3048": 3048,
      "token_3049": 3049,
      "token_3050": 3050,
      "token_3051": 3051,
      "token_3052": 3052,
      "token_3053": 3053,
      "token_3054": 3054,
      "token_3055": 3055,
      "token_3056": 3056,
      "token_3057": 3057,
      "token_3058": 3058,
      "token_3059": 3059,
      "token_3060": 3060,
      "token_3061": 3061,
      "token_3062": 3062,
      "token_3063": 3063,
      "token_3064": 3064,
      "token_3065": 3065,
      "token_3066": 3066,
      "token_3067": 3067,
      "token_3068": 3068,
      "token_3069": 3069,
      "token_3070": 3070,
      "token_3071": 3071,
      "token_3072": 3072,
      "token_3073": 3073,
      "token_3074": 3074,
      "token_3075": 3075,
      "token_3076": 3076,
      "token_3077": 3077,
      "token_3078": 3078,
      "token_3079": 3079,
      "token_3080": 3080,
      "token_3081": 3081,
      "token_3082": 3082,
      "token_3083": 3083,
      "token_3084": 3084,
      "token_3085": 3085,
      "token_3086": 3086,
      "token_3087": 3087,
      "token_3088": 3088,
      "token_3089": 3089,
      "token_3090": 3090,
      "token_3091": 3091,
      "token_3092": 3092,
      "token_3093": 3093,
      "token_3094": 3094,
      "token_3095": 3095,
      "token_3096": 3096,
      "token_3097": 3097,
      "token_3098": 3098,
      "token_3099": 3099,
      "token_3100": 3100,
      "token_3101": 3101,
      "token_3102": 3102,
      "token_3103": 3103,
      "token_3104": 3104,
      "token_3105": 3105,
      "token_3106": 3106,
      "token_3107": 3107,
      "token_3108": 3108,
      "token_3109": 3109,
      "token_3110": 3110,
      "token_3111": 3111,
      "token_3112": 3112,
      "token_3113": 3113,
      "token_3114": 3114,
      "token_3115": 3115,
      "token_3116": 3116,
      "token_3117": 3117,
      "token_3118": 3118,
      "token_3119": 3119,
      "token_3120": 3120,
      "token_3121": 3121,
      "token_3122": 3122,
      "token_3123": 3123,
      "token_3124": 3124,
      "token_3125": 3125,
      "token_3126": 3126,
      "token_3127": 3127,
      "token_3128": 3128,
      "token_3129": 3129,
      "token_3130": 3130,
      "token_3131": 3131,
      "token_3132": 3132,
      "token_3133": 3133,
      "token_3134": 3134,
      "token_3135": 3135,
      "token_3136": 3136,
      "token_3137": 3137,
      "token_3138": 3138,
      "token_3139": 3139,
      "token_3140": 3140,
      "token_3141": 3141,
      "token_3142": 3142,
      "token_3143": 3143,
      "token_3144": 3144,
      "token_3145": 3145,
      "token_3146": 3146,
      "token_3147": 3147,
      "token_3148": 3148,
      "token_3149": 3149,
      "token_3150": 3150,
      "token_3151": 3151,
      "token_3152": 3152,
      "token_3153": 3153,
      "token_3154": 3154,
      "token_3155": 3155,
      "token_3156": 3156,
      "token_3157": 3157,
      "token_3158": 3158,
      "token_3159": 3159,
      "token_3160": 3160,
      "token_3161": 3161,
      "token_3162": 3162,
      "token_3163": 3163,
      "token_3164": 3164,
      "token_3165": 3165,
      "token_3166": 3166,
      "token_3167": 3167,
      "token_3168": 3168,
      "token_3169": 3169,
      "token_3170": 3170,
      "token_3171": 3171,
      "token_3172": 3172,
      "token_3173": 3173,
      "token_3174": 3174,
      "token_3175": 3175,
      "token_3176": 3176,
      "token_3177": 3177,
      "token_3178": 3178,
      "token_3179": 3179,
      "token_3180": 3180,
      "token_3181": 3181,
      "token_3182": 3182,
      "token_3183": 3183,
      "token_3184": 3184,
      "token_3185": 3185,
      "token_3186": 3186,
      "token_3187": 3187,
      "token_3188": 3188,
      "token_3189": 3189,
      "token_3190": 3190,
      "token_3191": 3191,
      "token_3192": 3192,
      "token_3193": 3193,
      "token_3194": 3194,
      "token_3195": 3195,
      "token_3196": 3196,
      "token_3197": 3197,
      "token_3198": 3198,
      "token_3199": 3199,
      "token_3200": 3200,
      "token_3201": 3201,
      "token_3202": 3202,
      "token_3203": 3203,
      "token_3204": 3204,
      "token_3205": 3205,
      "token_3206": 3206,
      "token_3207": 3207,
      "token_3208": 3208,
      "token_3209": 3209,
      "token_3210": 3210,
      "token_3211": 3211,
      "token_3212": 3212,
      "token_3213": 3213,
      "token_3214": 3214,
      "token_3215": 3215,
      "token_3216": 3216,
      "token_3217": 3217,
      "token_3218": 3218,
      "token_3219": 3219,
      "token_3220": 3220,
      "token_3221": 3221,
      "token_3222": 3222,
      "token_3223": 3223,
      "token_3224": 3224,
      "token_3225": 3225,
      "token_3226": 3226,
      "token_3227": 3227,
      "token_3228": 3228,
      "token_3229": 3229,
      "token_3230": 3230,
      "token_3231": 3231,
      "token_3232": 3232,
      "token_3233": 3233,
      "token_3234": 3234,
      "token_3235": 3235,
      "token_3236": 3236,
      "token_3237": 3237,
      "token_3238": 3238,
      "token_3239": 3239,
      "token_3240": 3240,
      "token_3241": 3241,
      "token_3242": 3242,
      "token_3243": 3243,
      "token_3244": 3244,
      "token_3245": 3245,
      "token_3246": 3246,
      "token_3247": 3247,
      "token_3248": 3248,
      "token_3249": 3249,
      "token_3250": 3250,
      "token_3251": 3251,
      "token_3252": 3252,
      "token_3253": 3253,
      "token_3254": 3254,
      "token_3255": 3255,
      "token_3256": 3256,
      "token_3257": 3257,
      "token_3258": 3258,
      "token_3259": 3259,
      "token_3260": 3260,
      "token_3261": 3261,
      "token_3262": 3262,
      "token_3263": 3263,
      "token_3264": 3264,
      "token_3265": 3265,
      "token_3266": 3266,
      "token_3267": 3267,
      "token_3268": 3268,
      "token_3269": 3269,
      "token_3270": 3270,
      "token_3271": 3271,
      "token_3272": 3272,
      "token_3273": 3273,
      "token_3274": 3274,
      "token_3275": 3275,
      "token_3276": 3276,
      "token_3277": 3277,
      "token_3278": 3278,
      "token_3279": 3279,
      "token_3280": 3280,
      "token_3281": 3281,
      "token_3282": 3282,
      "token_3283": 3283,
      "token_3284": 3284,
      "token_3285": 3285,
      "token_3286": 3286,
      "token_3287": 3287,
      "token_3288": 3288,
      "token_3289": 3289,
      "token_3290": 3290,
      "token_3291": 3291,
      "token_3292": 3292,
      "token_3293": 3293,
      "token_3294": 3294,
      "token_3295": 3295,
      "token_3296": 3296,
      "token_3297": 3297,
      "token_3298": 3298,
      "token_3299": 3299,
      "token_3300": 3300,
      "token_3301": 3301,
      "token_3302": 3302,
      "token_3303": 3303,
      "token_3304": 3304,
      "token_3305": 3305,
      "token_3306": 3306,
      "token_3307": 3307,
      "token_3308": 3308,
      "token_3309": 3309,
      "token_3310": 3310,
      "token_3311": 3311,
      "token_3312": 3312,
      "token_3313": 3313,
      "token_3314": 3314,
      "token_3315": 3315,
      "token_3316": 3316,
      "token_3317": 3317,
      "token_3318": 3318,
      "token_3319": 3319,
      "token_3320": 3320,
      "token_3321": 3321,
      "token_3322": 3322,
      "token_3323": 3323,
      "token_3324": 3324,
      "token_3325": 3325,
      "token_3326": 3326,
      "token_3327": 3327,
      "token_3328": 3328,
      "token_3329": 3329,
      "token_3330": 3330,
      "token_3331": 3331,
      "token_3332": 3332,
      "token_3333": 3333,
      "token_3334": 3334,
      "token_3335": 3335,
      "token_3336": 3336,
      "token_3337": 3337,
      "token_3338": 3338,
      "token_3339": 3339,
      "token_3340": 3340,
      "token_3341": 3341,
      "token_3342": 3342,
      "token_3343": 3343,
      "token_3344": 3344,
      "token_3345": 3345,
      "token_3346": 3346,
      "token_3347": 3347,
      "token_3348": 3348,
      "token_3349": 3349,
      "token_3350": 3350,
      "token_3351": 3351,
      "token_3352": 3352,
      "token_3353": 3353,
      "token_3354": 3354,
      "token_3355": 3355,
      "token_3356": 3356,
      "token_3357": 3357,
      "token_3358": 3358,
      "token_3359": 3359,
      "token_3360": 3360,
      "token_3361": 3361,
      "token_3362": 3362,
      "token_3363": 3363,
      "token_3364": 3364,
      "token_3365": 3365,
      "token_3366": 3366,
      "token_3367": 3367,
      "token_3368": 3368,
      "token_3369": 3369,
      "token_3370": 3370,
      "token_3371": 3371,
      "token_3372": 3372,
      "token_3373": 3373,
      "token_3374": 3374,
      "token_3375": 3375,
      "token_3376": 3376,
      "token_3377": 3377,
      "token_3378": 3378,
      "token_3379": 3379,
      "token_3380": 3380,
      "token_3381": 3381,
      "token_3382": 3382,
      "token_3383": 3383,
      "token_3384": 3384,
      "token_3385": 3385,
      "token_3386": 3386,
      "token_3387": 3387,
      "token_3388": 3388,
      "token_3389": 3389,
      "token_3390": 3390,
      "token_3391": 3391,
      "token_3392": 3392,
      "token_3393": 3393,
      "token_3394": 3394,
      "token_3395": 3395,
      "token_3396": 3396,
      "token_3397": 3397,
      "token_3398": 3398,
      "token_3399": 3399,
      "token_3400": 3400,
      "token_3401": 3401,
      "token_3402": 3402,
      "token_3403": 3403,
      "token_3404": 3404,
      "token_3405": 3405,
      "token_3406": 3406,
      "token_3407": 3407,
      "token_3408": 3408,
      "token_3409": 3409,
      "token_3410": 3410,
      "token_3411": 3411,
      "token_3412": 3412,
      "token_3413": 3413,
      "token_3414": 3414,
      "token_3415": 3415,
      "token_3416": 3416,
      "token_3417": 3417,
      "token_3418": 3418,
      "token_3419": 3419,
      "token_3420": 3420,
      "token_3421": 3421,
      "token_3422": 3422,
      "token_3423": 3423,
      "token_3424": 3424,
      "token_3425": 3425,
      "token_3426": 3426,
      "token_3427": 3427,
      "token_3428": 3428,
      "token_3429": 3429,
      "token_3430": 3430,
      "token_3431": 3431,
      "token_3432": 3432,
      "token_3433": 3433,
      "token_3434": 3434,
      "token_3435": 3435,
      "token_3436": 3436,
      "token_3437": 3437,
      "token_3438": 3438,
      "token_3439": 3439,
      "token_3440": 3440,
      "token_3441": 3441,
      "token_3442": 3442,
      "token_3443": 3443,
      "token_3444": 3444,
      "token_3445": 3445,
      "token_3446": 3446,
      "token_3447": 3447,
      "token_3448": 3448,
      "token_3449": 3449,
      "token_3450": 3450,
      "token_3451": 3451,
      "token_3452": 3452,
      "token_3453": 3453,
      "token_3454": 3454,
      "token_3455": 3455,
      "token_3456": 3456,
      "token_3457": 3457,
      "token_3458": 3458,
      "token_3459": 3459,
      "token_3460": 3460,
      "token_3461": 3461,
      "token_3462": 3462,
      "token_3463": 3463,
      "token_3464": 3464,
      "token_3465": 3465,
      "token_3466": 3466,
      "token_3467": 3467,
      "token_3468": 3468,
      "token_3469": 3469,
      "token_3470": 3470,
      "token_3471": 3471,
      "token_3472": 3472,
      "token_3473": 3473,
      "token_3474": 3474,
      "token_3475": 3475,
      "token_3476": 3476,
      "token_3477": 3477,
      "token_3478": 3478,
      "token_3479": 3479,
      "token_3480": 3480,
      "token_3481": 3481,
      "token_3482": 3482,
      "token_3483": 3483,
      "token_3484": 3484,
      "token_3485": 3485,
      "token_3486": 3486,
      "token_3487": 3487,
      "token_3488": 3488,
      "token_3489": 3489,
      "token_3490": 3490,
      "token_3491": 3491,
      "token_3492": 3492,
      "token_3493": 3493,
      "token_3494": 3494,
      "token_3495": 3495,
      "token_3496": 3496,
      "token_3497": 3497,
      "token_3498": 3498,
      "token_3499": 3499,
      "token_3500": 3500,
      "token_3501": 3501,
      "token_3502": 3502,
      "token_3503": 3503,
      "token_3504": 3504,
      "token_3505": 3505,
      "token_3506": 3506,
      "token_3507": 3507,
      "token_3508": 3508,
      "token_3509": 3509,
      "token_3510": 3510,
      "token_3511": 3511,
      "token_3512": 3512,
      "token_3513": 3513,
      "token_3514": 3514,
      "token_3515": 3515,
      "token_3516": 3516,
      "token_3517": 3517,
      "token_3518": 3518,
      "token_3519": 3519,
      "token_3520": 3520,
      "token_3521": 3521,
      "token_3522": 3522,
      "token_3523": 3523,
      "token_3524": 3524,
      "token_3525": 3525,
      "token_3526": 3526,
      "token_3527": 3527,
      "token_3528": 3528,
      "token_3529": 3529,
      "token_3530": 3530,
      "token_3531": 3531,
      "token_3532": 3532,
      "token_3533": 3533,
      "token_3534": 3534,
      "token_3535": 3535,
      "token_3536": 3536,
      "token_3537": 3537,
      "token_3538": 3538,
      "token_3539": 3539,
      "token_3540": 3540,
      "token_3541": 3541,
      "token_3542": 3542,
      "token_3543": 3543,
      "token_3544": 3544,
      "token_3545": 3545,
      "token_3546": 3546,
      "token_3547": 3547,
      "token_3548": 3548,
      "token_3549": 3549,
      "token_3550": 3550,
      "token_3551": 3551,
      "token_3552": 3552,
      "token_3553": 3553,
      "token_3554": 3554,
      "token_3555": 3555,
      "token_3556": 3556,
      "token_3557": 3557,
      "token_3558": 3558,
      "token_3559": 3559,
      "token_3560": 3560,
      "token_3561": 3561,
      "token_3562": 3562,
      "token_3563": 3563,
      "token_3564": 3564,
      "token_3565": 3565,
      "token_3566": 3566,
      "token_3567": 3567,
      "token_3568": 3568,
      "token_3569": 3569,
      "token_3570": 3570,
      "token_3571": 3571,
      "token_3572": 3572,
      "token_3573": 3573,
      "token_3574": 3574,
      "token_3575": 3575,
      "token_3576": 3576,
      "token_3577": 3577,
      "token_3578": 3578,
      "token_3579": 3579,
      "token_3580": 3580,
      "token_3581": 3581,
      "token_3582": 3582,
      "token_3583": 3583,
      "token_3584": 3584,
      "token_3585": 3585,
      "token_3586": 3586,
      "token_3587": 3587,
      "token_3588": 3588,
      "token_3589": 3589,
      "token_3590": 3590,
      "token_3591": 3591,
      "token_3592": 3592,
      "token_3593": 3593,
      "token_3594": 3594,
      "token_3595": 3595,
      "token_3596": 3596,
      "token_3597": 3597,
      "token_3598": 3598,
      "token_3599": 3599,
      "token_3600": 3600,
      "token_3601": 3601,
      "token_3602": 3602,
      "token_3603": 3603,
      "token_3604": 3604,
      "token_3605": 3605,
      "token_3606": 3606,
      "token_3607": 3607,
      "token_3608": 3608,
      "token_3609": 3609,
      "token_3610": 3610,
      "token_3611": 3611,
      "token_3612": 3612,
      "token_3613": 3613,
      "token_3614": 3614,
      "token_3615": 3615,
      "token_3616": 3616,
      "token_3617": 3617,
      "token_3618": 3618,
      "token_3619": 3619,
      "token_3620": 3620,
      "token_3621": 3621,
      "token_3622": 3622,
      "token_3623": 3623,
      "token_3624": 3624,
      "token_3625": 3625,
      "token_3626": 3626,
      "token_3627": 3627,
      "token_3628": 3628,
      "token_3629": 3629,
      "token_3630": 3630,
      "token_3631": 3631,
      "token_3632": 3632,
      "token_3633": 3633,
      "token_3634": 3634,
      "token_3635": 3635,
      "token_3636": 3636,
      "token_3637": 3637,
      "token_3638": 3638,
      "token_3639": 3639,
      "token_3640": 3640,
      "token_3641": 3641,
      "token_3642": 3642,
      "token_3643": 3643,
      "token_3644": 3644,
      "token_3645": 3645,
      "token_3646": 3646,
      "token_3647": 3647,
      "token_3648": 3648,
      "token_3649": 3649,
      "token_3650": 3650,
      "token_3651": 3651,
      "token_3652": 3652,
      "token_3653": 3653,
      "token_3654": 3654,
      "token_3655": 3655,
      "token_3656": 3656,
      "token_3657": 3657,
      "token_3658": 3658,
      "token_3659": 3659,
      "token_3660": 3660,
      "token_3661": 3661,
      "token_3662": 3662,
      "token_3663": 3663,
      "token_3664": 3664,
      "token_3665": 3665,
      "token_3666": 3666,
      "token_3667": 3667,
      "token_3668": 3668,
      "token_3669": 3669,
      "token_3670": 3670,
      "token_3671": 3671,
      "token_3672": 3672,
      "token_3673": 3673,
      "token_3674": 3674,
      "token_3675": 3675,
      "token_3676": 3676,
      "token_3677": 3677,
      "token_3678": 3678,
      "token_3679": 3679,
      "token_3680": 3680,
      "token_3681": 3681,
      "token_3682": 3682,
      "token_3683": 3683,
      "token_3684": 3684,
      "token_3685": 3685,
      "token_3686": 3686,
      "token_3687": 3687,
      "token_3688": 3688,
      "token_3689": 3689,
      "token_3690": 3690,
      "token_3691": 3691,
      "token_3692": 3692,
      "token_3693": 3693,
      "token_3694": 3694,
      "token_3695": 3695,
      "token_3696": 3696,
      "token_3697": 3697,
      "token_3698": 3698,
      "token_3699": 3699,
      "token_3700": 3700,
      "token_3701": 3701,
      "token_3702": 3702,
      "token_3703": 3703,
      "token_3704": 3704,
      "token_3705": 3705,
      "token_3706": 3706,
      "token_3707": 3707,
      "token_3708": 3708,
      "token_3709": 3709,
      "token_3710": 3710,
      "token_3711": 3711,
      "token_3712": 3712,
      "token_3713": 3713,
      "token_3714": 3714,
      "token_3715": 3715,
      "token_3716": 3716,
      "token_3717": 3717,
      "token_3718": 3718,
      "token_3719": 3719,
      "token_3720": 3720,
      "token_3721": 3721,
      "token_3722": 3722,
      "token_3723": 3723,
      "token_3724": 3724,
      "token_3725": 3725,
      "token_3726": 3726,
      "token_3727": 3727,
      "token_3728": 3728,
      "token_3729": 3729,
      "token_3730": 3730,
      "token_3731": 3731,
      "token_3732": 3732,
      "token_3733": 3733,
      "token_3734": 3734,
      "token_3735": 3735,
      "token_3736": 3736,
      "token_3737": 3737,
      "token_3738": 3738,
      "token_3739": 3739,
      "token_3740": 3740,
      "token_3741": 3741,
      "token_3742": 3742,
      "token_3743": 3743,
      "token_3744": 3744,
      "token_3745": 3745,
      "token_3746": 3746,
      "token_3747": 3747,
      "token_3748": 3748,
      "token_3749": 3749,
      "token_3750": 3750,
      "token_3751": 3751,
      "token_3752": 3752,
      "token_3753": 3753,
      "token_3754": 3754,
      "token_3755": 3755,
      "token_3756": 3756,
      "token_3757": 3757,
      "token_3758": 3758,
      "token_3759": 3759,
      "token_3760": 3760,
      "token_3761": 3761,
      "token_3762": 3762,
      "token_3763": 3763,
      "token_3764": 3764,
      "token_3765": 3765,
      "token_3766": 3766,
      "token_3767": 3767,
      "token_3768": 3768,
      "token_3769": 3769,
      "token_3770": 3770,
      "token_3771": 3771,
      "token_3772": 3772,
      "token_3773": 3773,
      "token_3774": 3774,
      "token_3775": 3775,
      "token_3776": 3776,
      "token_3777": 3777,
      "token_3778": 3778,
      "token_3779": 3779,
      "token_3780": 3780,
      "token_3781": 3781,
      "token_3782": 3782,
      "token_3783": 3783,
      "token_3784": 3784,
      "token_3785": 3785,
      "token_3786": 3786,
      "token_3787": 3787,
      "token_3788": 3788,
      "token_3789": 3789,
      "token_3790": 3790,
      "token_3791": 3791,
      "token_3792": 3792,
      "token_3793": 3793,
      "token_3794": 3794,
      "token_3795": 3795,
      "token_3796": 3796,
      "token_3797": 3797,
      "token_3798": 3798,
      "token_3799": 3799,
      "token_3800": 3800,
      "token_3801": 3801,
      "token_3802": 3802,
      "token_3803": 3803,
      "token_3804": 3804,
      "token_3805": 3805,
      "token_3806": 3806,
      "token_3807": 3807,
      "token_3808": 3808,
      "token_3809": 3809,
      "token_3810": 3810,
      "token_3811": 3811,
      "token_3812": 3812,
      "token_3813": 3813,
      "token_3814": 3814,
      "token_3815": 3815,
      "token_3816": 3816,
      "token_3817": 3817,
      "token_3818": 3818,
      "token_3819": 3819,
      "token_3820": 3820,
      "token_3821": 3821,
      "token_3822": 3822,
      "token_3823": 3823,
      "token_3824": 3824,
      "token_3825": 3825,
      "token_3826": 3826,
      "token_3827": 3827,
      "token_3828": 3828,
      "token_3829": 3829,
      "token_3830": 3830,
      "token_3831": 3831,
      "token_3832": 3832,
      "token_3833": 3833,
      "token_3834": 3834,
      "token_3835": 3835,
      "token_3836": 3836,
      "token_3837": 3837,
      "token_3838": 3838,
      "token_3839": 3839,
      "token_3840": 3840,
      "token_3841": 3841,
      "token_3842": 3842,
      "token_3843": 3843,
      "token_3844": 3844,
      "token_3845": 3845,
      "token_3846": 3846,
      "token_3847": 3847,
      "token_3848": 3848,
      "token_3849": 3849,
      "token_3850": 3850,
      "token_3851": 3851,
      "token_3852": 3852,
      "token_3853": 3853,
      "token_3854": 3854,
      "token_3855": 3855,
      "token_3856": 3856,
      "token_3857": 3857,
      "token_3858": 3858,
      "token_3859": 3859,
      "token_3860": 3860,
      "token_3861": 3861,
      "token_3862": 3862,
      "token_3863": 3863,
      "token_3864": 3864,
      "token_3865": 3865,
      "token_3866": 3866,
      "token_3867": 3867,
      "token_3868": 3868,
      "token_3869": 3869,
      "token_3870": 3870,
      "token_3871": 3871,
      "token_3872": 3872,
      "token_3873": 3873,
      "token_3874": 3874,
      "token_3875": 3875,
      "token_3876": 3876,
      "token_3877": 3877,
      "token_3878": 3878,
      "token_3879": 3879,
      "token_3880": 3880,
      "token_3881": 3881,
      "token_3882": 3882,
      "token_3883": 3883,
      "token_3884": 3884,
      "token_3885": 3885,
      "token_3886": 3886,
      "token_3887": 3887,
      "token_3888": 3888,
      "token_3889": 3889,
      "token_3890": 3890,
      "token_3891": 3891,
      "token_3892": 3892,
      "token_3893": 3893,
      "token_3894": 3894,
      "token_3895": 3895,
      "token_3896": 3896,
      "token_3897": 3897,
      "token_3898": 3898,
      "token_3899": 3899,
      "token_3900": 3900,
      "token_3901": 3901,
      "token_3902": 3902,
      "token_3903": 3903,
      "token_3904": 3904,
      "token_3905": 3905,
      "token_3906": 3906,
      "token_3907": 3907,
      "token_3908": 3908,
      "token_3909": 3909,
      "token_3910": 3910,
      "token_3911": 3911,
      "token_3912": 3912,
      "token_3913": 3913,
      "token_3914": 3914,
      "token_3915": 3915,
      "token_3916": 3916,
      "token_3917": 3917,
      "token_3918": 3918,
      "token_3919": 3919,
      "token_3920": 3920,
      "token_3921": 3921,
      "token_3922": 3922,
      "token_3923": 3923,
      "token_3924": 3924,
      "token_3925": 3925,
      "token_3926": 3926,
      "token_3927": 3927,
      "token_3928": 3928,
      "token_3929": 3929,
      "token_3930": 3930,
      "token_3931": 3931,
      "token_3932": 3932,
      "token_3933": 3933,
      "token_3934": 3934,
      "token_3935": 3935,
      "token_3936": 3936,
      "token_3937": 3937,
      "token_3938": 3938,
      "token_3939": 3939,
      "token_3940": 3940,
      "token_3941": 3941,
      "token_3942": 3942,
      "token_3943": 3943,
      "token_3944": 3944,
      "token_3945": 3945,
      "token_3946": 3946,
      "token_3947": 3947,
      "token_3948": 3948,
      "token_3949": 3949,
      "token_3950": 3950,
      "token_3951": 3951,
      "token_3952": 3952,
      "token_3953": 3953,
      "token_3954": 3954,
      "token_3955": 3955,
      "token_3956": 3956,
      "token_3957": 3957,
      "token_3958": 3958,
      "token_3959": 3959,
      "token_3960": 3960,
      "token_3961": 3961,
      "token_3962": 3962,
      "token_3963": 3963,
      "token_3964": 3964,
      "token_3965": 3965,
      "token_3966": 3966,
      "token_3967": 3967,
      "token_3968": 3968,
      "token_3969": 3969,
      "token_3970": 3970,
      "token_3971": 3971,
      "token_3972": 3972,
      "token_3973": 3973,
      "token_3974": 3974,
      "token_3975": 3975,
      "token_3976": 3976,
      "token_3977": 3977,
      "token_3978": 3978,
      "token_3979": 3979,
      "token_3980": 3980,
      "token_3981": 3981,
      "token_3982": 3982,
      "token_3983": 3983,
      "token_3984": 3984,
      "token_3985": 3985,
      "token_3986": 3986,
      "token_3987": 3987,
      "token_3988": 3988,
      "token_3989": 3989,
      "token_3990": 3990,
      "token_3991": 3991,
      "token_3992": 3992,
      "token_3993": 3993,
      "token_3994": 3994,
      "token_3995": 3995,
      "token_3996": 3996,
      "token_3997": 3997,
      "token_3998": 3998,
      "token_3999": 3999,
      "token_4000": 4000,
      "token_4001": 4001,
      "token_4002": 4002,
      "token_4003": 4003,
      "token_4004": 4004,
      "token_4005": 4005,
      "token_4006": 4006,
      "token_4007": 4007,
      "token_4008": 4008,
      "token_4009": 4009,
      "token_4010": 4010,
      "token_4011": 4011,
      "token_4012": 4012,
      "token_4013": 4013,
      "token_4014": 4014,
      "token_4015": 4015,
      "token_4016": 4016,
      "token_4017": 4017,
      "token_4018": 4018,
      "token_4019": 4019,
      "token_4020": 4020,
      "token_4021": 4021,
      "token_4022": 4022,
      "token_4023": 4023,
      "token_4024": 4024,
      "token_4025": 4025,
      "token_4026": 4026,
      "token_4027": 4027,
      "token_4028": 4028,
      "token_4029": 4029,
      "token_4030": 4030,
      "token_4031": 4031,
      "token_4032": 4032,
      "token_4033": 4033,
      "token_4034": 4034,
      "token_4035": 4035,
      "token_4036": 4036,
      "token_4037": 4037,
      "token_4038": 4038,
      "token_4039": 4039,
      "token_4040": 4040,
      "token_4041": 4041,
      "token_4042": 4042,
      "token_4043": 4043,
      "token_4044": 4044,
      "token_4045": 4045,
      "token_4046": 4046,
      "token_4047": 4047,
      "token_4048": 4048,
      "token_4049": 4049,
      "token_4050": 4050,
      "token_4051": 4051,
      "token_4052": 4052,
      "token_4053": 4053,
      "token_4054": 4054,
      "token_4055": 4055,
      "token_4056": 4056,
      "token_4057": 4057,
      "token_4058": 4058,
      "token_4059": 4059,
      "token_4060": 4060,
      "token_4061": 4061,
      "token_4062": 4062,
      "token_4063": 4063,
      "token_4064": 4064,
      "token_4065": 4065,
      "token_4066": 4066,
      "token_4067": 4067,
      "token_4068": 4068,
      "token_4069": 4069,
      "token_4070": 4070,
      "token_4071": 4071,
      "token_4072": 4072,
      "token_4073": 4073,
      "token_4074": 4074,
      "token_4075": 4075,
      "token_4076": 4076,
      "token_4077": 4077,
      "token_4078": 4078,
      "token_4079": 4079,
      "token_4080": 4080,
      "token_4081": 4081,
      "token_4082": 4082,
      "token_4083": 4083,
      "token_4084": 4084,
      "token_4085": 4085,
      "token_4086": 4086,
      "token_4087": 4087,
      "token_4088": 4088,
      "token_4089": 4089,
      "token_4090": 4090,
      "token_4091": 4091,
      "token_4092": 4092,
      "token_4093": 4093,
      "token_4094": 4094,
      "token_4095": 4095,
      "token_4096": 4096,
      "token_4097": 4097,
      "token_4098": 4098,
      "token_4099": 4099,
      "token_4100": 4100,
      "token_4101": 4101,
      "token_4102": 4102,
      "token_4103": 4103,
      "token_4104": 4104,
      "token_4105": 4105,
      "token_4106": 4106,
      "token_4107": 4107,
      "token_4108": 4108,
      "token_4109": 4109,
      "token_4110": 4110,
      "token_4111": 4111,
      "token_4112": 4112,
      "token_4113": 4113,
      "token_4114": 4114,
      "token_4115": 4115,
      "token_4116": 4116,
      "token_4117": 4117,
      "token_4118": 4118,
      "token_4119": 4119,
      "token_4120": 4120,
      "token_4121": 4121,
      "token_4122": 4122,
      "token_4123": 4123,
      "token_4124": 4124,
      "token_4125": 4125,
      "token_4126": 4126,
      "token_4127": 4127,
      "token_4128": 4128,
      "token_4129": 4129,
      "token_4130": 4130,
      "token_4131": 4131,
      "token_4132": 4132,
      "token_4133": 4133,
      "token_4134": 4134,
      "token_4135": 4135,
      "token_4136": 4136,
      "token_4137": 4137,
      "token_4138": 4138,
      "token_4139": 4139,
      "token_4140": 4140,
      "token_4141": 4141,
      "token_4142": 4142,
      "token_4143": 4143,
      "token_4144": 4144,
      "token_4145": 4145,
      "token_4146": 4146,
      "token_4147": 4147,
      "token_4148": 4148,
      "token_4149": 4149,
      "token_4150": 4150,
      "token_4151": 4151,
      "token_4152": 4152,
      "token_4153": 4153,
      "token_4154": 4154,
      "token_4155": 4155,
      "token_4156": 4156,
      "token_4157": 4157,
      "token_4158": 4158,
      "token_4159": 4159,
      "token_4160": 4160,
      "token_4161": 4161,
      "token_4162": 4162,
      "token_4163": 4163,
      "token_4164": 4164,
      "token_4165": 4165,
      "token_4166": 4166,
      "token_4167": 4167,
      "token_4168": 4168,
      "token_4169": 4169,
      "token_4170": 4170,
      "token_4171": 4171,
      "token_4172": 4172,
      "token_4173": 4173,
      "token_4174": 4174,
      "token_4175": 4175,
      "token_4176": 4176,
      "token_4177": 4177,
      "token_4178": 4178,
      "token_4179": 4179,
      "token_4180": 4180,
      "token_4181": 4181,
      "token_4182": 4182,
      "token_4183": 4183,
      "token_4184": 4184,
      "token_4185": 4185,
      "token_4186": 4186,
      "token_4187": 4187,
      "token_4188": 4188,
      "token_4189": 4189,
      "token_4190": 4190,
      "token_4191": 4191,
      "token_4192": 4192,
      "token_4193": 4193,
      "token_4194": 4194,
      "token_4195": 4195,
      "token_4196": 4196,
      "token_4197": 4197,
      "token_4198": 4198,
      "token_4199": 4199,
      "token_4200": 4200,
      "token_4201": 4201,
      "token_4202": 4202,
      "token_4203": 4203,
      "token_4204": 4204,
      "token_4205": 4205,
      "token_4206": 4206,
      "token_4207": 4207,
      "token_4208": 4208,
      "token_4209": 4209,
      "token_4210": 4210,
      "token_4211": 4211,
      "token_4212": 4212,
      "token_4213": 4213,
      "token_4214": 4214,
      "token_4215": 4215,
      "token_4216": 4216,
      "token_4217": 4217,
      "token_4218": 4218,
      "token_4219": 4219,
      "token_4220": 4220,
      "token_4221": 4221,
      "token_4222": 4222,
      "token_4223": 4223,
      "token_4224": 4224,
      "token_4225": 4225,
      "token_4226": 4226,
      "token_4227": 4227,
      "token_4228": 4228,
      "token_4229": 4229,
      "token_4230": 4230,
      "token_4231": 4231,
      "token_4232": 4232,
      "token_4233": 4233,
      "token_4234": 4234,
      "token_4235": 4235,
      "token_4236": 4236,
      "token_4237": 4237,
      "token_4238": 4238,
      "token_4239": 4239,
      "token_4240": 4240,
      "token_4241": 4241,
      "token_4242": 4242,
      "token_4243": 4243,
      "token_4244": 4244,
      "token_4245": 4245,
      "token_4246": 4246,
      "token_4247": 4247,
      "token_4248": 4248,
      "token_4249": 4249,
      "token_4250": 4250,
      "token_4251": 4251,
      "token_4252": 4252,
      "token_4253": 4253,
      "token_4254": 4254,
      "token_4255": 4255,
      "token_4256": 4256,
      "token_4257": 4257,
      "token_4258": 4258,
      "token_4259": 4259,
      "token_4260": 4260,
      "token_4261": 4261,
      "token_4262": 4262,
      "token_4263": 4263,
      "token_4264": 4264,
      "token_4265": 4265,
      "token_4266": 4266,
      "token_4267": 4267,
      "token_4268": 4268,
      "token_4269": 4269,
      "token_4270": 4270,
      "token_4271": 4271,
      "token_4272": 4272,
      "token_4273": 4273,
      "token_4274": 4274,
      "token_4275": 4275,
      "token_4276": 4276,
      "token_4277": 4277,
      "token_4278": 4278,
      "token_4279": 4279,
      "token_4280": 4280,
      "token_4281": 4281,
      "token_4282": 4282,
      "token_4283": 4283,
      "token_4284": 4284,
      "token_4285": 4285,
      "token_4286": 4286,
      "token_4287": 4287,
      "token_4288": 4288,
      "token_4289": 4289,
      "token_4290": 4290,
      "token_4291": 4291,
      "token_4292": 4292,
      "token_4293": 4293,
      "token_4294": 4294,
      "token_4295": 4295,
      "token_4296": 4296,
      "token_4297": 4297,
      "token_4298": 4298,
      "token_4299": 4299,
      "token_4300": 4300,
      "token_4301": 4301,
      "token_4302": 4302,
      "token_4303": 4303,
      "token_4304": 4304,
      "token_4305": 4305,
      "token_4306": 4306,
      "token_4307": 4307,
      "token_4308": 4308,
      "token_4309": 4309,
      "token_4310": 4310,
      "token_4311": 4311,
      "token_4312": 4312,
      "token_4313": 4313,
      "token_4314": 4314,
      "token_4315": 4315,
      "token_4316": 4316,
      "token_4317": 4317,
      "token_4318": 4318,
      "token_4319": 4319,
      "token_4320": 4320,
      "token_4321": 4321,
      "token_4322": 4322,
      "token_4323": 4323,
      "token_4324": 4324,
      "token_4325": 4325,
      "token_4326": 4326,
      "token_4327": 4327,
      "token_4328": 4328,
      "token_4329": 4329,
      "token_4330": 4330,
      "token_4331": 4331,
      "token_4332": 4332,
      "token_4333": 4333,
      "token_4334": 4334,
      "token_4335": 4335,
      "token_4336": 4336,
      "token_4337": 4337,
      "token_4338": 4338,
      "token_4339": 4339,
      "token_4340": 4340,
      "token_4341": 4341,
      "token_4342": 4342,
      "token_4343": 4343,
      "token_4344": 4344,
      "token_4345": 4345,
      "token_4346": 4346,
      "token_4347": 4347,
      "token_4348": 4348,
      "token_4349": 4349,
      "token_4350": 4350,
      "token_4351": 4351,
      "token_4352": 4352,
      "token_4353": 4353,
      "token_4354": 4354,
      "token_4355": 4355,
      "token_4356": 4356,
      "token_4357": 4357,
      "token_4358": 4358,
      "token_4359": 4359,
      "token_4360": 4360,
      "token_4361": 4361,
      "token_4362": 4362,
      "token_4363": 4363,
      "token_4364": 4364,
      "token_4365": 4365,
      "token_4366": 4366,
      "token_4367": 4367,
      "token_4368": 4368,
      "token_4369": 4369,
      "token_4370": 4370,
      "token_4371": 4371,
      "token_4372": 4372,
      "token_4373": 4373,
      "token_4374": 4374,
      "token_4375": 4375,
      "token_4376": 4376,
      "token_4377": 4377,
      "token_4378": 4378,
      "token_4379": 4379,
      "token_4380": 4380,
      "token_4381": 4381,
      "token_4382": 4382,
      "token_4383": 4383,
      "token_4384": 4384,
      "token_4385": 4385,
      "token_4386": 4386,
      "token_4387": 4387,
      "token_4388": 4388,
      "token_4389": 4389,
      "token_4390": 4390,
      "token_4391": 4391,
      "token_4392": 4392,
      "token_4393": 4393,
      "token_4394": 4394,
      "token_4395": 4395,
      "token_4396": 4396,
      "token_4397": 4397,
      "token_4398": 4398,
      "token_4399": 4399,
      "token_4400": 4400,
      "token_4401": 4401,
      "token_4402": 4402,
      "token_4403": 4403,
      "token_4404": 4404,
      "token_4405": 4405,
      "token_4406": 4406,
      "token_4407": 4407,
      "token_4408": 4408,
      "token_4409": 4409,
      "token_4410": 4410,
      "token_4411": 4411,
      "token_4412": 4412,
      "token_4413": 4413,
      "token_4414": 4414,
      "token_4415": 4415,
      "token_4416": 4416,
      "token_4417": 4417,
      "token_4418": 4418,
      "token_4419": 4419,
      "token_4420": 4420,
      "token_4421": 4421,
      "token_4422": 4422,
      "token_4423": 4423,
      "token_4424": 4424,
      "token_4425": 4425,
      "token_4426": 4426,
      "token_4427": 4427,
      "token_4428": 4428,
      "token_4429": 4429,
      "token_4430": 4430,
      "token_4431": 4431,
      "token_4432": 4432,
      "token_4433": 4433,
      "token_4434": 4434,
      "token_4435": 4435,
      "token_4436": 4436,
      "token_4437": 4437,
      "token_4438": 4438,
      "token_4439": 4439,
      "token_4440": 4440,
      "token_4441": 4441,
      "token_4442": 4442,
      "token_4443": 4443,
      "token_4444": 4444,
      "token_4445": 4445,
      "token_4446": 4446,
      "token_4447": 4447,
      "token_4448": 4448,
      "token_4449": 4449,
      "token_4450": 4450,
      "token_4451": 4451,
      "token_4452": 4452,
      "token_4453": 4453,
      "token_4454": 4454,
      "token_4455": 4455,
      "token_4456": 4456,
      "token_4457": 4457,
      "token_4458": 4458,
      "token_4459": 4459,
      "token_4460": 4460,
      "token_4461": 4461,
      "token_4462": 4462,
      "token_4463": 4463,
      "token_4464": 4464,
      "token_4465": 4465,
      "token_4466": 4466,
      "token_4467": 4467,
      "token_4468": 4468,
      "token_4469": 4469,
      "token_4470": 4470,
      "token_4471": 4471,
      "token_4472": 4472,
      "token_4473": 4473,
      "token_4474": 4474,
      "token_4475": 4475,
      "token_4476": 4476,
      "token_4477": 4477,
      "token_4478": 4478,
      "token_4479": 4479,
      "token_4480": 4480,
      "token_4481": 4481,
      "token_4482": 4482,
      "token_4483": 4483,
      "token_4484": 4484,
      "token_4485": 4485,
      "token_4486": 4486,
      "token_4487": 4487,
      "token_4488": 4488,
      "token_4489": 4489,
      "token_4490": 4490,
      "token_4491": 4491,
      "token_4492": 4492,
      "token_4493": 4493,
      "token_4494": 4494,
      "token_4495": 4495,
      "token_4496": 4496,
      "token_4497": 4497,
      "token_4498": 4498,
      "token_4499": 4499,
      "token_4500": 4500,
      "token_4501": 4501,
      "token_4502": 4502,
      "token_4503": 4503,
      "token_4504": 4504,
      "token_4505": 4505,
      "token_4506": 4506,
      "token_4507": 4507,
      "token_4508": 4508,
      "token_4509": 4509,
      "token_4510": 4510,
      "token_4511": 4511,
      "token_4512": 4512,
      "token_4513": 4513,
      "token_4514": 4514,
      "token_4515": 4515,
      "token_4516": 4516,
      "token_4517": 4517,
      "token_4518": 4518,
      "token_4519": 4519,
      "token_4520": 4520,
      "token_4521": 4521,
      "token_4522": 4522,
      "token_4523": 4523,
      "token_4524": 4524,
      "token_4525": 4525,
      "token_4526": 4526,
      "token_4527": 4527,
      "token_4528": 4528,
      "token_4529": 4529,
      "token_4530": 4530,
      "token_4531": 4531,
      "token_4532": 4532,
      "token_4533": 4533,
      "token_4534": 4534,
      "token_4535": 4535,
      "token_4536": 4536,
      "token_4537": 4537,
      "token_4538": 4538,
      "token_4539": 4539,
      "token_4540": 4540,
      "token_4541": 4541,
      "token_4542": 4542,
      "token_4543": 4543,
      "token_4544": 4544,
      "token_4545": 4545,
      "token_4546": 4546,
      "token_4547": 4547,
      "token_4548": 4548,
      "token_4549": 4549,
      "token_4550": 4550,
      "token_4551": 4551,
      "token_4552": 4552,
      "token_4553": 4553,
      "token_4554": 4554,
      "token_4555": 4555,
      "token_4556": 4556,
      "token_4557": 4557,
      "token_4558": 4558,
      "token_4559": 4559,
      "token_4560": 4560,
      "token_4561": 4561,
      "token_4562": 4562,
      "token_4563": 4563,
      "token_4564": 4564,
      "token_4565": 4565,
      "token_4566": 4566,
      "token_4567": 4567,
      "token_4568": 4568,
      "token_4569": 4569,
      "token_4570": 4570,
      "token_4571": 4571,
      "token_4572": 4572,
      "token_4573": 4573,
      "token_4574": 4574,
      "token_4575": 4575,
      "token_4576": 4576,
      "token_4577": 4577,
      "token_4578": 4578,
      "token_4579": 4579,
      "token_4580": 4580,
      "token_4581": 4581,
      "token_4582": 4582,
      "token_4583": 4583,
      "token_4584": 4584,
      "token_4585": 4585,
      "token_4586": 4586,
      "token_4587": 4587,
      "token_4588": 4588,
      "token_4589": 4589,
      "token_4590": 4590,
      "token_4591": 4591,
      "token_4592": 4592,
      "token_4593": 4593,
      "token_4594": 4594,
      "token_4595": 4595,
      "token_4596": 4596,
      "token_4597": 4597,
      "token_4598": 4598,
      "token_4599": 4599,
      "token_4600": 4600,
      "token_4601": 4601,
      "token_4602": 4602,
      "token_4603": 4603,
      "token_4604": 4604,
      "token_4605": 4605,
      "token_4606": 4606,
      "token_4607": 4607,
      "token_4608": 4608,
      "token_4609": 4609,
      "token_4610": 4610,
      "token_4611": 4611,
      "token_4612": 4612,
      "token_4613": 4613,
      "token_4614": 4614,
      "token_4615": 4615,
      "token_4616": 4616,
      "token_4617": 4617,
      "token_4618": 4618,
      "token_4619": 4619,
      "token_4620": 4620,
      "token_4621": 4621,
      "token_4622": 4622,
      "token_4623": 4623,
      "token_4624": 4624,
      "token_4625": 4625,
      "token_4626": 4626,
      "token_4627": 4627,
      "token_4628": 4628,
      "token_4629": 4629,
      "token_4630": 4630,
      "token_4631": 4631,
      "token_4632": 4632,
      "token_4633": 4633,
      "token_4634": 4634,
      "token_4635": 4635,
      "token_4636": 4636,
      "token_4637": 4637,
      "token_4638": 4638,
      "token_4639": 4639,
      "token_4640": 4640,
      "token_4641": 4641,
      "token_4642": 4642,
      "token_4643": 4643,
      "token_4644": 4644,
      "token_4645": 4645,
      "token_4646": 4646,
      "token_4647": 4647,
      "token_4648": 4648,
      "token_4649": 4649,
      "token_4650": 4650,
      "token_4651": 4651,
      "token_4652": 4652,
      "token_4653": 4653,
      "token_4654": 4654,
      "token_4655": 4655,
      "token_4656": 4656,
      "token_4657": 4657,
      "token_4658": 4658,
      "token_4659": 4659,
      "token_4660": 4660,
      "token_4661": 4661,
      "token_4662": 4662,
      "token_4663": 4663,
      "token_4664": 4664,
      "token_4665": 4665,
      "token_4666": 4666,
      "token_4667": 4667,
      "token_4668": 4668,
      "token_4669": 4669,
      "token_4670": 4670,
      "token_4671": 4671,
      "token_4672": 4672,
      "token_4673": 4673,
      "token_4674": 4674,
      "token_4675": 4675,
      "token_4676": 4676,
      "token_4677": 4677,
      "token_4678": 4678,
      "token_4679": 4679,
      "token_4680": 4680,
      "token_4681": 4681,
      "token_4682": 4682,
      "token_4683": 4683,
      "token_4684": 4684,
      "token_4685": 4685,
      "token_4686": 4686,
      "token_4687": 4687,
      "token_4688": 4688,
      "token_4689": 4689,
      "token_4690": 4690,
      "token_4691": 4691,
      "token_4692": 4692,
      "token_4693": 4693,
      "token_4694": 4694,
      "token_4695": 4695,
      "token_4696": 4696,
      "token_4697": 4697,
      "token_4698": 4698,
      "token_4699": 4699,
      "token_4700": 4700,
      "token_4701": 4701,
      "token_4702": 4702,
      "token_4703": 4703,
      "token_4704": 4704,
      "token_4705": 4705,
      "token_4706": 4706,
      "token_4707": 4707,
      "token_4708": 4708,
      "token_4709": 4709,
      "token_4710": 4710,
      "token_4711": 4711,
      "token_4712": 4712,
      "token_4713": 4713,
      "token_4714": 4714,
      "token_4715": 4715,
      "token_4716": 4716,
      "token_4717": 4717,
      "token_4718": 4718,
      "token_4719": 4719,
      "token_4720": 4720,
      "token_4721": 4721,
      "token_4722": 4722,
      "token_4723": 4723,
      "token_4724": 4724,
      "token_4725": 4725,
      "token_4726": 4726,
      "token_4727": 4727,
      "token_4728": 4728,
      "token_4729": 4729,
      "token_4730": 4730,
      "token_4731": 4731,
      "token_4732": 4732,
      "token_4733": 4733,
      "token_4734": 4734,
      "token_4735": 4735,
      "token_4736": 4736,
      "token_4737": 4737,
      "token_4738": 4738,
      "token_4739": 4739,
      "token_4740": 4740,
      "token_4741": 4741,
      "token_4742": 4742,
      "token_4743": 4743,
      "token_4744": 4744,
      "token_4745": 4745,
      "token_4746": 4746,
      "token_4747": 4747,
      "token_4748": 4748,
      "token_4749": 4749,
      "token_4750": 4750,
      "token_4751": 4751,
      "token_4752": 4752,
      "token_4753": 4753,
      "token_4754": 4754,
      "token_4755": 4755,
      "token_4756": 4756,
      "token_4757": 4757,
      "token_4758": 4758,
      "token_4759": 4759,
      "token_4760": 4760,
      "token_4761": 4761,
      "token_4762": 4762,
      "token_4763": 4763,
      "token_4764": 4764,
      "token_4765": 4765,
      "token_4766": 4766,
      "token_4767": 4767,
      "token_4768": 4768,
      "token_4769": 4769,
      "token_4770": 4770,
      "token_4771": 4771,
      "token_4772": 4772,
      "token_4773": 4773,
      "token_4774": 4774,
      "token_4775": 4775,
      "token_4776": 4776,
      "token_4777": 4777,
      "token_4778": 4778,
      "token_4779": 4779,
      "token_4780": 4780,
      "token_4781": 4781,
      "token_4782": 4782,
      "token_4783": 4783,
      "token_4784": 4784,
      "token_4785": 4785,
      "token_4786": 4786,
      "token_4787": 4787,
      "token_4788": 4788,
      "token_4789": 4789,
      "token_4790": 4790,
      "token_4791": 4791,
      "token_4792": 4792,
      "token_4793": 4793,
      "token_4794": 4794,
      "token_4795": 4795,
      "token_4796": 4796,
      "token_4797": 4797,
      "token_4798": 4798,
      "token_4799": 4799,
      "token_4800": 4800,
      "token_4801": 4801,
      "token_4802": 4802,
      "token_4803": 4803,
      "token_4804": 4804,
      "token_4805": 4805,
      "token_4806": 4806,
      "token_4807": 4807,
      "token_4808": 4808,
      "token_4809": 4809,
      "token_4810": 4810,
      "token_4811": 4811,
      "token_4812": 4812,
      "token_4813": 4813,
      "token_4814": 4814,
      "token_4815": 4815,
      "token_4816": 4816,
      "token_4817": 4817,
      "token_4818": 4818,
      "token_4819": 4819,
      "token_4820": 4820,
      "token_4821": 4821,
      "token_4822": 4822,
      "token_4823": 4823,
      "token_4824": 4824,
      "token_4825": 4825,
      "token_4826": 4826,
      "token_4827": 4827,
      "token_4828": 4828,
      "token_4829": 4829,
      "token_4830": 4830,
      "token_4831": 4831,
      "token_4832": 4832,
      "token_4833": 4833,
      "token_4834": 4834,
      "token_4835": 4835,
      "token_4836": 4836,
      "token_4837": 4837,
      "token_4838": 4838,
      "token_4839": 4839,
      "token_4840": 4840,
      "token_4841": 4841,
      "token_4842": 4842,
      "token_4843": 4843,
      "token_4844": 4844,
      "token_4845": 4845,
      "token_4846": 4846,
      "token_4847": 4847,
      "token_4848": 4848,
      "token_4849": 4849,
      "token_4850": 4850,
      "token_4851": 4851,
      "token_4852": 4852,
      "token_4853": 4853,
      "token_4854": 4854,
      "token_4855": 4855,
      "token_4856": 4856,
      "token_4857": 4857,
      "token_4858": 4858,
      "token_4859": 4859,
      "token_4860": 4860,
      "token_4861": 4861,
      "token_4862": 4862,
      "token_4863": 4863,
      "token_4864": 4864,
      "token_4865": 4865,
      "token_4866": 4866,
      "token_4867": 4867,
      "token_4868": 4868,
      "token_4869": 4869,
      "token_4870": 4870,
      "token_4871": 4871,
      "token_4872": 4872,
      "token_4873": 4873,
      "token_4874": 4874,
      "token_4875": 4875,
      "token_4876": 4876,
      "token_4877": 4877,
      "token_4878": 4878,
      "token_4879": 4879,
      "token_4880": 4880,
      "token_4881": 4881,
      "token_4882": 4882,
      "token_4883": 4883,
      "token_4884": 4884,
      "token_4885": 4885,
      "token_4886": 4886,
      "token_4887": 4887,
      "token_4888": 4888,
      "token_4889": 4889,
      "token_4890": 4890,
      "token_4891": 4891,
      "token_4892": 4892,
      "token_4893": 4893,
      "token_4894": 4894,
      "token_4895": 4895,
      "token_4896": 4896,
      "token_4897": 4897,
      "token_4898": 4898,
      "token_4899": 4899,
      "token_4900": 4900,
      "token_4901": 4901,
      "token_4902": 4902,
      "token_4903": 4903,
      "token_4904": 4904,
      "token_4905": 4905,
      "token_4906": 4906,
      "token_4907": 4907,
      "token_4908": 4908,
      "token_4909": 4909,
      "token_4910": 4910,
      "token_4911": 4911,
      "token_4912": 4912,
      "token_4913": 4913,
      "token_4914": 4914,
      "token_4915": 4915,
      "token_4916": 4916,
      "token_4917": 4917,
      "token_4918": 4918,
      "token_4919": 4919,
      "token_4920": 4920,
      "token_4921": 4921,
      "token_4922": 4922,
      "token_4923": 4923,
      "token_4924": 4924,
      "token_4925": 4925,
      "token_4926": 4926,
      "token_4927": 4927,
      "token_4928": 4928,
      "token_4929": 4929,
      "token_4930": 4930,
      "token_4931": 4931,
      "token_4932": 4932,
      "token_4933": 4933,
      "token_4934": 4934,
      "token_4935": 4935,
      "token_4936": 4936,
      "token_4937": 4937,
      "token_4938": 4938,
      "token_4939": 4939,
      "token_4940": 4940,
      "token_4941": 4941,
      "token_4942": 4942,
      "token_4943": 4943,
      "token_4944": 4944,
      "token_4945": 4945,
      "token_4946": 4946,
      "token_4947": 4947,
      "token_4948": 4948,
      "token_4949": 4949,
      "token_4950": 4950,
      "token_4951": 4951,
      "token_4952": 4952,
      "token_4953": 4953,
      "token_4954": 4954,
      "token_4955": 4955,
      "token_4956": 4956,
      "token_4957": 4957,
      "token_4958": 4958,
      "token_4959": 4959,
      "token_4960": 4960,
      "token_4961": 4961,
      "token_4962": 4962,
      "token_4963": 4963,
      "token_4964": 4964,
      "token_4965": 4965,
      "token_4966": 4966,
      "token_4967": 4967,
      "token_4968": 4968,
      "token_4969": 4969,
      "token_4970": 4970,
      "token_4971": 4971,
      "token_4972": 4972,
      "token_4973": 4973,
      "token_4974": 4974,
      "token_4975": 4975,
      "token_4976": 4976,
      "token_4977": 4977,
      "token_4978": 4978,
      "token_4979": 4979,
      "token_4980": 4980,
      "token_4981": 4981,
      "token_4982": 4982,
      "token_4983": 4983,
      "token_4984": 4984,
      "token_4985": 4985,
      "token_4986": 4986,
      "token_4987": 4987,
      "token_4988": 4988,
      "token_4989": 4989,
      "token_4990": 4990,
      "token_4991": 4991,
      "token_4992": 4992,
      "token_4993": 4993,
      "token_4994": 4994,
      "token_4995": 4995,
      "token_4996": 4996,
      "token_4997": 4997,
      "token_4998": 4998,
      "token_4999": 4999,
      "token_5000": 5000,
      "token_5001": 5001,
      "token_5002": 5002,
      "token_5003": 5003,
      "token_5004": 5004,
      "token_5005": 5005,
      "token_5006": 5006,
      "token_5007": 5007,
      "token_5008": 5008,
      "token_5009": 5009,
      "token_5010": 5010,
      "token_5011": 5011,
      "token_5012": 5012,
      "token_5013": 5013,
      "token_5014": 5014,
      "token_5015": 5015,
      "token_5016": 5016,
      "token_5017": 5017,
      "token_5018": 5018,
      "token_5019": 5019,
      "token_5020": 5020,
      "token_5021": 5021,
      "token_5022": 5022,
      "token_5023": 5023,
      "token_5024": 5024,
      "token_5025": 5025,
      "token_5026": 5026,
      "token_5027": 5027,
      "token_5028": 5028,
      "token_5029": 5029,
      "token_5030": 5030,
      "token_5031": 5031,
      "token_5032": 5032,
      "token_5033": 5033,
      "token_5034": 5034,
      "token_5035": 5035,
      "token_5036": 5036,
      "token_5037": 5037,
      "token_5038": 5038,
      "token_5039": 5039,
      "token_5040": 5040,
      "token_5041": 5041,
      "token_5042": 5042,
      "token_5043": 5043,
      "token_5044": 5044,
      "token_5045": 5045,
      "token_5046": 5046,
      "token_5047": 5047,
      "token_5048": 5048,
      "token_5049": 5049,
      "token_5050": 5050,
      "token_5051": 5051,
      "token_5052": 5052,
      "token_5053": 5053,
      "token_5054": 5054,
      "token_5055": 5055,
      "token_5056": 5056,
      "token_5057": 5057,
      "token_5058": 5058,
      "token_5059": 5059,
      "token_5060": 5060,
      "token_5061": 5061,
      "token_5062": 5062,
      "token_5063": 5063,
      "token_5064": 5064,
      "token_5065": 5065,
      "token_5066": 5066,
      "token_5067": 5067,
      "token_5068": 5068,
      "token_5069": 5069,
      "token_5070": 5070,
      "token_5071": 5071,
      "token_5072": 5072,
      "token_5073": 5073,
      "token_5074": 5074,
      "token_5075": 5075,
      "token_5076": 5076,
      "token_5077": 5077,
      "token_5078": 5078,
      "token_5079": 5079,
      "token_5080": 5080,
      "token_5081": 5081,
      "token_5082": 5082,
      "token_5083": 5083,
      "token_5084": 5084,
      "token_5085": 5085,
      "token_5086": 5086,
      "token_5087": 5087,
      "token_5088": 5088,
      "token_5089": 5089,
      "token_5090": 5090,
      "token_5091": 5091,
      "token_5092": 5092,
      "token_5093": 5093,
      "token_5094": 5094,
      "token_5095": 5095,
      "token_5096": 5096,
      "token_5097": 5097,
      "token_5098": 5098,
      "token_5099": 5099,
      "token_5100": 5100,
      "token_5101": 5101,
      "token_5102": 5102,
      "token_5103": 5103,
      "token_5104": 5104,
      "token_5105": 5105,
      "token_5106": 5106,
      "token_5107": 5107,
      "token_5108": 5108,
      "token_5109": 5109,
      "token_5110": 5110,
      "token_5111": 5111,
      "token_5112": 5112,
      "token_5113": 5113,
      "token_5114": 5114,
      "token_5115": 5115,
      "token_5116": 5116,
      "token_5117": 5117,
      "token_5118": 5118,
      "token_5119": 5119,
      "token_5120": 5120,
      "token_5121": 5121,
      "token_5122": 5122,
      "token_5123": 5123,
      "token_5124": 5124,
      "token_5125": 5125,
      "token_5126": 5126,
      "token_5127": 5127,
      "token_5128": 5128,
      "token_5129": 5129,
      "token_5130": 5130,
      "token_5131": 5131,
      "token_5132": 5132,
      "token_5133": 5133,
      "token_5134": 5134,
      "token_5135": 5135,
      "token_5136": 5136,
      "token_5137": 5137,
      "token_5138": 5138,
      "token_5139": 5139,
      "token_5140": 5140,
      "token_5141": 5141,
      "token_5142": 5142,
      "token_5143": 5143,
      "token_5144": 5144,
      "token_5145": 5145,
      "token_5146": 5146,
      "token_5147": 5147,
      "token_5148": 5148,
      "token_5149": 5149,
      "token_5150": 5150,
      "token_5151": 5151,
      "token_5152": 5152,
      "token_5153": 5153,
      "token_5154": 5154,
      "token_5155": 5155,
      "token_5156": 5156,
      "token_5157": 5157,
      "token_5158": 5158,
      "token_5159": 5159,
      "token_5160": 5160,
      "token_5161": 5161,
      "token_5162": 5162,
      "token_5163": 5163,
      "token_5164": 5164,
      "token_5165": 5165,
      "token_5166": 5166,
      "token_5167": 5167,
      "token_5168": 5168,
      "token_5169": 5169,
      "token_5170": 5170,
      "token_5171": 5171,
      "token_5172": 5172,
      "token_5173": 5173,
      "token_5174": 5174,
      "token_5175": 5175,
      "token_5176": 5176,
      "token_5177": 5177,
      "token_5178": 5178,
      "token_5179": 5179,
      "token_5180": 5180,
      "token_5181": 5181,
      "token_5182": 5182,
      "token_5183": 5183,
      "token_5184": 5184,
      "token_5185": 5185,
      "token_5186": 5186,
      "token_5187": 5187,
      "token_5188": 5188,
      "token_5189": 5189,
      "token_5190": 5190,
      "token_5191": 5191,
      "token_5192": 5192,
      "token_5193": 5193,
      "token_5194": 5194,
      "token_5195": 5195,
      "token_5196": 5196,
      "token_5197": 5197,
      "token_5198": 5198,
      "token_5199": 5199,
      "token_5200": 5200,
      "token_5201": 5201,
      "token_5202": 5202,
      "token_5203": 5203,
      "token_5204": 5204,
      "token_5205": 5205,
      "token_5206": 5206,
      "token_5207": 5207,
      "token_5208": 5208,
      "token_5209": 5209,
      "token_5210": 5210,
      "token_5211": 5211,
      "token_5212": 5212,
      "token_5213": 5213,
      "token_5214": 5214,
      "token_5215": 5215,
      "token_5216": 5216,
      "token_5217": 5217,
      "token_5218": 5218,
      "token_5219": 5219,
      "token_5220": 5220,
      "token_5221": 5221,
      "token_5222": 5222,
      "token_5223": 5223,
      "token_5224": 5224,
      "token_5225": 5225,
      "token_5226": 5226,
      "token_5227": 5227,
      "token_5228": 5228,
      "token_5229": 5229,
      "token_5230": 5230,
      "token_5231": 5231,
      "token_5232": 5232,
      "token_5233": 5233,
      "token_5234": 5234,
      "token_5235": 5235,
      "token_5236": 5236,
      "token_5237": 5237,
      "token_5238": 5238,
      "token_5239": 5239,
      "token_5240": 5240,
      "token_5241": 5241,
      "token_5242": 5242,
      "token_5243": 5243,
      "token_5244": 5244,
      "token_5245": 5245,
      "token_5246": 5246,
      "token_5247": 5247,
      "token_5248": 5248,
      "token_5249": 5249,
      "token_5250": 5250,
      "token_5251": 5251,
      "token_5252": 5252,
      "token_5253": 5253,
      "token_5254": 5254,
      "token_5255": 5255,
      "token_5256": 5256,
      "token_5257": 5257,
      "token_5258": 5258,
      "token_5259": 5259,
      "token_5260": 5260,
      "token_5261": 5261,
      "token_5262": 5262,
      "token_5263": 5263,
      "token_5264": 5264,
      "token_5265": 5265,
      "token_5266": 5266,
      "token_5267": 5267,
      "token_5268": 5268,
      "token_5269": 5269,
      "token_5270": 5270,
      "token_5271": 5271,
      "token_5272": 5272,
      "token_5273": 5273,
      "token_5274": 5274,
      "token_5275": 5275,
      "token_5276": 5276,
      "token_5277": 5277,
      "token_5278": 5278,
      "token_5279": 5279,
      "token_5280": 5280,
      "token_5281": 5281,
      "token_5282": 5282,
      "token_5283": 5283,
      "token_5284": 5284,
      "token_5285": 5285,
      "token_5286": 5286,
      "token_5287": 5287,
      "token_5288": 5288,
      "token_5289": 5289,
      "token_5290": 5290,
      "token_5291": 5291,
      "token_5292": 5292,
      "token_5293": 5293,
      "token_5294": 5294,
      "token_5295": 5295,
      "token_5296": 5296,
      "token_5297": 5297,
      "token_5298": 5298,
      "token_5299": 5299,
      "token_5300": 5300,
      "token_5301": 5301,
      "token_5302": 5302,
      "token_5303": 5303,
      "token_5304": 5304,
      "token_5305": 5305,
      "token_5306": 5306,
      "token_5307": 5307,
      "token_5308": 5308,
      "token_5309": 5309,
      "token_5310": 5310,
      "token_5311": 5311,
      "token_5312": 5312,
      "token_5313": 5313,
      "token_5314": 5314,
      "token_5315": 5315,
      "token_5316": 5316,
      "token_5317": 5317,
      "token_5318": 5318,
      "token_5319": 5319,
      "token_5320": 5320,
      "token_5321": 5321,
      "token_5322": 5322,
      "token_5323": 5323,
      "token_5324": 5324,
      "token_5325": 5325,
      "token_5326": 5326,
      "token_5327": 5327,
      "token_5328": 5328,
      "token_5329": 5329,
      "token_5330": 5330,
      "token_5331": 5331,
      "token_5332": 5332,
      "token_5333": 5333,
      "token_5334": 5334,
      "token_5335": 5335,
      "token_5336": 5336,
      "token_5337": 5337,
      "token_5338": 5338,
      "token_5339": 5339,
      "token_5340": 5340,
      "token_5341": 5341,
      "token_5342": 5342,
      "token_5343": 5343,
      "token_5344": 5344,
      "token_5345": 5345,
      "token_5346": 5346,
      "token_5347": 5347,
      "token_5348": 5348,
      "token_5349": 5349,
      "token_5350": 5350,
      "token_5351": 5351,
      "token_5352": 5352,
      "token_5353": 5353,
      "token_5354": 5354,
      "token_5355": 5355,
      "token_5356": 5356,
      "token_5357": 5357,
      "token_5358": 5358,
      "token_5359": 5359,
      "token_5360": 5360,
      "token_5361": 5361,
      "token_5362": 5362,
      "token_5363": 5363,
      "token_5364": 5364,
      "token_5365": 5365,
      "token_5366": 5366,
      "token_5367": 5367,
      "token_5368": 5368,
      "token_5369": 5369,
      "token_5370": 5370,
      "token_5371": 5371,
      "token_5372": 5372,
      "token_5373": 5373,
      "token_5374": 5374,
      "token_5375": 5375,
      "token_5376": 5376,
      "token_5377": 5377,
      "token_5378": 5378,
      "token_5379": 5379,
      "token_5380": 5380,
      "token_5381": 5381,
      "token_5382": 5382,
      "token_5383": 5383,
      "token_5384": 5384,
      "token_5385": 5385,
      "token_5386": 5386,
      "token_5387": 5387,
      "token_5388": 5388,
      "token_5389": 5389,
      "token_5390": 5390,
      "token_5391": 5391,
      "token_5392": 5392,
      "token_5393": 5393,
      "token_5394": 5394,
      "token_5395": 5395,
      "token_5396": 5396,
      "token_5397": 5397,
      "token_5398": 5398,
      "token_5399": 5399,
      "token_5400": 5400,
      "token_5401": 5401,
      "token_5402": 5402,
      "token_5403": 5403,
      "token_5404": 5404,
      "token_5405": 5405,
      "token_5406": 5406,
      "token_5407": 5407,
      "token_5408": 5408,
      "token_5409": 5409,
      "token_5410": 5410,
      "token_5411": 5411,
      "token_5412": 5412,
      "token_5413": 5413,
      "token_5414": 5414,
      "token_5415": 5415,
      "token_5416": 5416,
      "token_5417": 5417,
      "token_5418": 5418,
      "token_5419": 5419,
      "token_5420": 5420,
      "token_5421": 5421,
      "token_5422": 5422,
      "token_5423": 5423,
      "token_5424": 5424,
      "token_5425": 5425,
      "token_5426": 5426,
      "token_5427": 5427,
      "token_5428": 5428,
      "token_5429": 5429,
      "token_5430": 5430,
      "token_5431": 5431,
      "token_5432": 5432,
      "token_5433": 5433,
      "token_5434": 5434,
      "token_5435": 5435,
      "token_5436": 5436,
      "token_5437": 5437,
      "token_5438": 5438,
      "token_5439": 5439,
      "token_5440": 5440,
      "token_5441": 5441,
      "token_5442": 5442,
      "token_5443": 5443,
      "token_5444": 5444,
      "token_5445": 5445,
      "token_5446": 5446,
      "token_5447": 5447,
      "token_5448": 5448,
      "token_5449": 5449,
      "token_5450": 5450,
      "token_5451": 5451,
      "token_5452": 5452,
      "token_5453": 5453,
      "token_5454": 5454,
      "token_5455": 5455,
      "token_5456": 5456,
      "token_5457": 5457,
      "token_5458": 5458,
      "token_5459": 5459,
      "token_5460": 5460,
      "token_5461": 5461,
      "token_5462": 5462,
      "token_5463": 5463,
      "token_5464": 5464,
      "token_5465": 5465,
      "token_5466": 5466,
      "token_5467": 5467,
      "token_5468": 5468,
      "token_5469": 5469,
      "token_5470": 5470,
      "token_5471": 5471,
      "token_5472": 5472,
      "token_5473": 5473,
      "token_5474": 5474,
      "token_5475": 5475,
      "token_5476": 5476,
      "token_5477": 5477,
      "token_5478": 5478,
      "token_5479": 5479,
      "token_5480": 5480,
      "token_5481": 5481,
      "token_5482": 5482,
      "token_5483": 5483,
      "token_5484": 5484,
      "token_5485": 5485,
      "token_5486": 5486,
      "token_5487": 5487,
      "token_5488": 5488,
      "token_5489": 5489,
      "token_5490": 5490,
      "token_5491": 5491,
      "token_5492": 5492,
      "token_5493": 5493,
      "token_5494": 5494,
      "token_5495": 5495,
      "token_5496": 5496,
      "token_5497": 5497,
      "token_5498": 5498,
      "token_5499": 5499,
      "token_5500": 5500,
      "token_5501": 5501,
      "token_5502": 5502,
      "token_5503": 5503,
      "token_5504": 5504,
      "token_5505": 5505,
      "token_5506": 5506,
      "token_5507": 5507,
      "token_5508": 5508,
      "token_5509": 5509,
      "token_5510": 5510,
      "token_5511": 5511,
      "token_5512": 5512,
      "token_5513": 5513,
      "token_5514": 5514,
      "token_5515": 5515,
      "token_5516": 5516,
      "token_5517": 5517,
      "token_5518": 5518,
      "token_5519": 5519,
      "token_5520": 5520,
      "token_5521": 5521,
      "token_5522": 5522,
      "token_5523": 5523,
      "token_5524": 5524,
      "token_5525": 5525,
      "token_5526": 5526,
      "token_5527": 5527,
      "token_5528": 5528,
      "token_5529": 5529,
      "token_5530": 5530,
      "token_5531": 5531,
      "token_5532": 5532,
      "token_5533": 5533,
      "token_5534": 5534,
      "token_5535": 5535,
      "token_5536": 5536,
      "token_5537": 5537,
      "token_5538": 5538,
      "token_5539": 5539,
      "token_5540": 5540,
      "token_5541": 5541,
      "token_5542": 5542,
      "token_5543": 5543,
      "token_5544": 5544,
      "token_5545": 5545,
      "token_5546": 5546,
      "token_5547": 5547,
      "token_5548": 5548,
      "token_5549": 5549,
      "token_5550": 5550,
      "token_5551": 5551,
      "token_5552": 5552,
      "token_5553": 5553,
      "token_5554": 5554,
      "token_5555": 5555,
      "token_5556": 5556,
      "token_5557": 5557,
      "token_5558": 5558,
      "token_5559": 5559,
      "token_5560": 5560,
      "token_5561": 5561,
      "token_5562": 5562,
      "token_5563": 5563,
      "token_5564": 5564,
      "token_5565": 5565,
      "token_5566": 5566,
      "token_5567": 5567,
      "token_5568": 5568,
      "token_5569": 5569,
      "token_5570": 5570,
      "token_5571": 5571,
      "token_5572": 5572,
      "token_5573": 5573,
      "token_5574": 5574,
      "token_5575": 5575,
      "token_5576": 5576,
      "token_5577": 5577,
      "token_5578": 5578,
      "token_5579": 5579,
      "token_5580": 5580,
      "token_5581": 5581,
      "token_5582": 5582,
      "token_5583": 5583,
      "token_5584": 5584,
      "token_5585": 5585,
      "token_5586": 5586,
      "token_5587": 5587,
      "token_5588": 5588,
      "token_5589": 5589,
      "token_5590": 5590,
      "token_5591": 5591,
      "token_5592": 5592,
      "token_5593": 5593,
      "token_5594": 5594,
      "token_5595": 5595,
      "token_5596": 5596,
      "token_5597": 5597,
      "token_5598": 5598,
      "token_5599": 5599,
      "token_5600": 5600,
      "token_5601": 5601,
      "token_5602": 5602,
      "token_5603": 5603,
      "token_5604": 5604,
      "token_5605": 5605,
      "token_5606": 5606,
      "token_5607": 5607,
      "token_5608": 5608,
      "token_5609": 5609,
      "token_5610": 5610,
      "token_5611": 5611,
      "token_5612": 5612,
      "token_5613": 5613,
      "token_5614": 5614,
      "token_5615": 5615,
      "token_5616": 5616,
      "token_5617": 5617,
      "token_5618": 5618,
      "token_5619": 5619,
      "token_5620": 5620,
      "token_5621": 5621,
      "token_5622": 5622,
      "token_5623": 5623,
      "token_5624": 5624,
      "token_5625": 5625,
      "token_5626": 5626,
      "token_5627": 5627,
      "token_5628": 5628,
      "token_5629": 5629,
      "token_5630": 5630,
      "token_5631": 5631,
      "token_5632": 5632,
      "token_5633": 5633,
      "token_5634": 5634,
      "token_5635": 5635,
      "token_5636": 5636,
      "token_5637": 5637,
      "token_5638": 5638,
      "token_5639": 5639,
      "token_5640": 5640,
      "token_5641": 5641,
      "token_5642": 5642,
      "token_5643": 5643,
      "token_5644": 5644,
      "token_5645": 5645,
      "token_5646": 5646,
      "token_5647": 5647,
      "token_5648": 5648,
      "token_5649": 5649,
      "token_5650": 5650,
      "token_5651": 5651,
      "token_5652": 5652,
      "token_5653": 5653,
      "token_5654": 5654,
      "token_5655": 5655,
      "token_5656": 5656,
      "token_5657": 5657,
      "token_5658": 5658,
      "token_5659": 5659,
      "token_5660": 5660,
      "token_5661": 5661,
      "token_5662": 5662,
      "token_5663": 5663,
      "token_5664": 5664,
      "token_5665": 5665,
      "token_5666": 5666,
      "token_5667": 5667,
      "token_5668": 5668,
      "token_5669": 5669,
      "token_5670": 5670,
      "token_5671": 5671,
      "token_5672": 5672,
      "token_5673": 5673,
      "token_5674": 5674,
      "token_5675": 5675,
      "token_5676": 5676,
      "token_5677": 5677,
      "token_5678": 5678,
      "token_5679": 5679,
      "token_5680": 5680,
      "token_5681": 5681,
      "token_5682": 5682,
      "token_5683": 5683,
      "token_5684": 5684,
      "token_5685": 5685,
      "token_5686": 5686,
      "token_5687": 5687,
      "token_5688": 5688,
      "token_5689": 5689,
      "token_5690": 5690,
      "token_5691": 5691,
      "token_5692": 5692,
      "token_5693": 5693,
      "token_5694": 5694,
      "token_5695": 5695,
      "token_5696": 5696,
      "token_5697": 5697,
      "token_5698": 5698,
      "token_5699": 5699,
      "token_5700": 5700,
      "token_5701": 5701,
      "token_5702": 5702,
      "token_5703": 5703,
      "token_5704": 5704,
      "token_5705": 5705,
      "token_5706": 5706,
      "token_5707": 5707,
      "token_5708": 5708,
      "token_5709": 5709,
      "token_5710": 5710,
      "token_5711": 5711,
      "token_5712": 5712,
      "token_5713": 5713,
      "token_5714": 5714,
      "token_5715": 5715,
      "token_5716": 5716,
      "token_5717": 5717,
      "token_5718": 5718,
      "token_5719": 5719,
      "token_5720": 5720,
      "token_5721": 5721,
      "token_5722": 5722,
      "token_5723": 5723,
      "token_5724": 5724,
      "token_5725": 5725,
      "token_5726": 5726,
      "token_5727": 5727,
      "token_5728": 5728,
      "token_5729": 5729,
      "token_5730": 5730,
      "token_5731": 5731,
      "token_5732": 5732,
      "token_5733": 5733,
      "token_5734": 5734,
      "token_5735": 5735,
      "token_5736": 5736,
      "token_5737": 5737,
      "token_5738": 5738,
      "token_5739": 5739,
      "token_5740": 5740,
      "token_5741": 5741,
      "token_5742": 5742,
      "token_5743": 5743,
      "token_5744": 5744,
      "token_5745": 5745,
      "token_5746": 5746,
      "token_5747": 5747,
      "token_5748": 5748,
      "token_5749": 5749,
      "token_5750": 5750,
      "token_5751": 5751,
      "token_5752": 5752,
      "token_5753": 5753,
      "token_5754": 5754,
      "token_5755": 5755,
      "token_5756": 5756,
      "token_5757": 5757,
      "token_5758": 5758,
      "token_5759": 5759,
      "token_5760": 5760,
      "token_5761": 5761,
      "token_5762": 5762,
      "token_5763": 5763,
      "token_5764": 5764,
      "token_5765": 5765,
      "token_5766": 5766,
      "token_5767": 5767,
      "token_5768": 5768,
      "token_5769": 5769,
      "token_5770": 5770,
      "token_5771": 5771,
      "token_5772": 5772,
      "token_5773": 5773,
      "token_5774": 5774,
      "token_5775": 5775,
      "token_5776": 5776,
      "token_5777": 5777,
      "token_5778": 5778,
      "token_5779": 5779,
      "token_5780": 5780,
      "token_5781": 5781,
      "token_5782": 5782,
      "token_5783": 5783,
      "token_5784": 5784,
      "token_5785": 5785,
      "token_5786": 5786,
      "token_5787": 5787,
      "token_5788": 5788,
      "token_5789": 5789,
      "token_5790": 5790,
      "token_5791": 5791,
      "token_5792": 5792,
      "token_5793": 5793,
      "token_5794": 5794,
      "token_5795": 5795,
      "token_5796": 5796,
      "token_5797": 5797,
      "token_5798": 5798,
      "token_5799": 5799,
      "token_5800": 5800,
      "token_5801": 5801,
      "token_5802": 5802,
      "token_5803": 5803,
      "token_5804": 5804,
      "token_5805": 5805,
      "token_5806": 5806,
      "token_5807": 5807,
      "token_5808": 5808,
      "token_5809": 5809,
      "token_5810": 5810,
      "token_5811": 5811,
      "token_5812": 5812,
      "token_5813": 5813,
      "token_5814": 5814,
      "token_5815": 5815,
      "token_5816": 5816,
      "token_5817": 5817,
      "token_5818": 5818,
      "token_5819": 5819,
      "token_5820": 5820,
      "token_5821": 5821,
      "token_5822": 5822,
      "token_5823": 5823,
      "token_5824": 5824,
      "token_5825": 5825,
      "token_5826": 5826,
      "token_5827": 5827,
      "token_5828": 5828,
      "token_5829": 5829,
      "token_5830": 5830,
      "token_5831": 5831,
      "token_5832": 5832,
      "token_5833": 5833,
      "token_5834": 5834,
      "token_5835": 5835,
      "token_5836": 5836,
      "token_5837": 5837,
      "token_5838": 5838,
      "token_5839": 5839,
      "token_5840": 5840,
      "token_5841": 5841,
      "token_5842": 5842,
      "token_5843": 5843,
      "token_5844": 5844,
      "token_5845": 5845,
      "token_5846": 5846,
      "token_5847": 5847,
      "token_5848": 5848,
      "token_5849": 5849,
      "token_5850": 5850,
      "token_5851": 5851,
      "token_5852": 5852,
      "token_5853": 5853,
      "token_5854": 5854,
      "token_5855": 5855,
      "token_5856": 5856,
      "token_5857": 5857,
      "token_5858": 5858,
      "token_5859": 5859,
      "token_5860": 5860,
      "token_5861": 5861,
      "token_5862": 5862,
      "token_5863": 5863,
      "token_5864": 5864,
      "token_5865": 5865,
      "token_5866": 5866,
      "token_5867": 5867,
      "token_5868": 5868,
      "token_5869": 5869,
      "token_5870": 5870,
      "token_5871": 5871,
      "token_5872": 5872,
      "token_5873": 5873,
      "token_5874": 5874,
      "token_5875": 5875,
      "token_5876": 5876,
      "token_5877": 5877,
      "token_5878": 5878,
      "token_5879": 5879,
      "token_5880": 5880,
      "token_5881": 5881,
      "token_5882": 5882,
      "token_5883": 5883,
      "token_5884": 5884,
      "token_5885": 5885,
      "token_5886": 5886,
      "token_5887": 5887,
      "token_5888": 5888,
      "token_5889": 5889,
      "token_5890": 5890,
      "token_5891": 5891,
      "token_5892": 5892,
      "token_5893": 5893,
      "token_5894": 5894,
      "token_5895": 5895,
      "token_5896": 5896,
      "token_5897": 5897,
      "token_5898": 5898,
      "token_5899": 5899,
      "token_5900": 5900,
      "token_5901": 5901,
      "token_5902": 5902,
      "token_5903": 5903,
      "token_5904": 5904,
      "token_5905": 5905,
      "token_5906": 5906,
      "token_5907": 5907,
      "token_5908": 5908,
      "token_5909": 5909,
      "token_5910": 5910,
      "token_5911": 5911,
      "token_5912": 5912,
      "token_5913": 5913,
      "token_5914": 5914,
      "token_5915": 5915,
      "token_5916": 5916,
      "token_5917": 5917,
      "token_5918": 5918,
      "token_5919": 5919,
      "token_5920": 5920,
      "token_5921": 5921,
      "token_5922": 5922,
      "token_5923": 5923,
      "token_5924": 5924,
      "token_5925": 5925,
      "token_5926": 5926,
      "token_5927": 5927,
      "token_5928": 5928,
      "token_5929": 5929,
      "token_5930": 5930,
      "token_5931": 5931,
      "token_5932": 5932,
      "token_5933": 5933,
      "token_5934": 5934,
      "token_5935": 5935,
      "token_5936": 5936,
      "token_5937": 5937,
      "token_5938": 5938,
      "token_5939": 5939,
      "token_5940": 5940,
      "token_5941": 5941,
      "token_5942": 5942,
      "token_5943": 5943,
      "token_5944": 5944,
      "token_5945": 5945,
      "token_5946": 5946,
      "token_5947": 5947,
      "token_5948": 5948,
      "token_5949": 5949,
      "token_5950": 5950,
      "token_5951": 5951,
      "token_5952": 5952,
      "token_5953": 5953,
      "token_5954": 5954,
      "token_5955": 5955,
      "token_5956": 5956,
      "token_5957": 5957,
      "token_5958": 5958,
      "token_5959": 5959,
      "token_5960": 5960,
      "token_5961": 5961,
      "token_5962": 5962,
      "token_5963": 5963,
      "token_5964": 5964,
      "token_5965": 5965,
      "token_5966": 5966,
      "token_5967": 5967,
      "token_5968": 5968,
      "token_5969": 5969,
      "token_5970": 5970,
      "token_5971": 5971,
      "token_5972": 5972,
      "token_5973": 5973,
      "token_5974": 5974,
      "token_5975": 5975,
      "token_5976": 5976,
      "token_5977": 5977,
      "token_5978": 5978,
      "token_5979": 5979,
      "token_5980": 5980,
      "token_5981": 5981,
      "token_5982": 5982,
      "token_5983": 5983,
      "token_5984": 5984,
      "token_5985": 5985,
      "token_5986": 5986,
      "token_5987": 5987,
      "token_5988": 5988,
      "token_5989": 5989,
      "token_5990": 5990,
      "token_5991": 5991,
      "token_5992": 5992,
      "token_5993": 5993,
      "token_5994": 5994,
      "token_5995": 5995,
      "token_5996": 5996,
      "token_5997": 5997,
      "token_5998": 5998,
      "token_5999": 5999,
      "token_6000": 6000,
      "token_6001": 6001,
      "token_6002": 6002,
      "token_6003": 6003,
      "token_6004": 6004,
      "token_6005": 6005,
      "token_6006": 6006,
      "token_6007": 6007,
      "token_6008": 6008,
      "token_6009": 6009,
      "token_6010": 6010,
      "token_6011": 6011,
      "token_6012": 6012,
      "token_6013": 6013,
      "token_6014": 6014,
      "token_6015": 6015,
      "token_6016": 6016,
      "token_6017": 6017,
      "token_6018": 6018,
      "token_6019": 6019,
      "token_6020": 6020,
      "token_6021": 6021,
      "token_6022": 6022,
      "token_6023": 6023,
      "token_6024": 6024,
      "token_6025": 6025,
      "token_6026": 6026,
      "token_6027": 6027,
      "token_6028": 6028,
      "token_6029": 6029,
      "token_6030": 6030,
      "token_6031": 6031,
      "token_6032": 6032,
      "token_6033": 6033,
      "token_6034": 6034,
      "token_6035": 6035,
      "token_6036": 6036,
      "token_6037": 6037,
      "token_6038": 6038,
      "token_6039": 6039,
      "token_6040": 6040,
      "token_6041": 6041,
      "token_6042": 6042,
      "token_6043": 6043,
      "token_6044": 6044,
      "token_6045": 6045,
      "token_6046": 6046,
      "token_6047": 6047,
      "token_6048": 6048,
      "token_6049": 6049,
      "token_6050": 6050,
      "token_6051": 6051,
      "token_6052": 6052,
      "token_6053": 6053,
      "token_6054": 6054,
      "token_6055": 6055,
      "token_6056": 6056,
      "token_6057": 6057,
      "token_6058": 6058,
      "token_6059": 6059,
      "token_6060": 6060,
      "token_6061": 6061,
      "token_6062": 6062,
      "token_6063": 6063,
      "token_6064": 6064,
      "token_6065": 6065,
      "token_6066": 6066,
      "token_6067": 6067,
      "token_6068": 6068,
      "token_6069": 6069,
      "token_6070": 6070,
      "token_6071": 6071,
      "token_6072": 6072,
      "token_6073": 6073,
      "token_6074": 6074,
      "token_6075": 6075,
      "token_6076": 6076,
      "token_6077": 6077,
      "token_6078": 6078,
      "token_6079": 6079,
      "token_6080": 6080,
      "token_6081": 6081,
      "token_6082": 6082,
      "token_6083": 6083,
      "token_6084": 6084,
      "token_6085": 6085,
      "token_6086": 6086,
      "token_6087": 6087,
      "token_6088": 6088,
      "token_6089": 6089,
      "token_6090": 6090,
      "token_6091": 6091,
      "token_6092": 6092,
      "token_6093": 6093,
      "token_6094": 6094,
      "token_6095": 6095,
      "token_6096": 6096,
      "token_6097": 6097,
      "token_6098": 6098,
      "token_6099": 6099,
      "token_6100": 6100,
      "token_6101": 6101,
      "token_6102": 6102,
      "token_6103": 6103,
      "token_6104": 6104,
      "token_6105": 6105,
      "token_6106": 6106,
      "token_6107": 6107,
      "token_6108": 6108,
      "token_6109": 6109,
      "token_6110": 6110,
      "token_6111": 6111,
      "token_6112": 6112,
      "token_6113": 6113,
      "token_6114": 6114,
      "token_6115": 6115,
      "token_6116": 6116,
      "token_6117": 6117,
      "token_6118": 6118,
      "token_6119": 6119,
      "token_6120": 6120,
      "token_6121": 6121,
      "token_6122": 6122,
      "token_6123": 6123,
      "token_6124": 6124,
      "token_6125": 6125,
      "token_6126": 6126,
      "token_6127": 6127,
      "token_6128": 6128,
      "token_6129": 6129,
      "token_6130": 6130,
      "token_6131": 6131,
      "token_6132": 6132,
      "token_6133": 6133,
      "token_6134": 6134,
      "token_6135": 6135,
      "token_6136": 6136,
      "token_6137": 6137,
      "token_6138": 6138,
      "token_6139": 6139,
      "token_6140": 6140,
      "token_6141": 6141,
      "token_6142": 6142,
      "token_6143": 6143,
      "token_6144": 6144,
      "token_6145": 6145,
      "token_6146": 6146,
      "token_6147": 6147,
      "token_6148": 6148,
      "token_6149": 6149,
      "token_6150": 6150,
      "token_6151": 6151,
      "token_6152": 6152,
      "token_6153": 6153,
      "token_6154": 6154,
      "token_6155": 6155,
      "token_6156": 6156,
      "token_6157": 6157,
      "token_6158": 6158,
      "token_6159": 6159,
      "token_6160": 6160,
      "token_6161": 6161,
      "token_6162": 6162,
      "token_6163": 6163,
      "token_6164": 6164,
      "token_6165": 6165,
      "token_6166": 6166,
      "token_6167": 6167,
      "token_6168": 6168,
      "token_6169": 6169,
      "token_6170": 6170,
      "token_6171": 6171,
      "token_6172": 6172,
      "token_6173": 6173,
      "token_6174": 6174,
      "token_6175": 6175,
      "token_6176": 6176,
      "token_6177": 6177,
      "token_6178": 6178,
      "token_6179": 6179,
      "token_6180": 6180,
      "token_6181": 6181,
      "token_6182": 6182,
      "token_6183": 6183,
      "token_6184": 6184,
      "token_6185": 6185,
      "token_6186": 6186,
      "token_6187": 6187,
      "token_6188": 6188,
      "token_6189": 6189,
      "token_6190": 6190,
      "token_6191": 6191,
      "token_6192": 6192,
      "token_6193": 6193,
      "token_6194": 6194,
      "token_6195": 6195,
      "token_6196": 6196,
      "token_6197": 6197,
      "token_6198": 6198,
      "token_6199": 6199,
      "token_6200": 6200,
      "token_6201": 6201,
      "token_6202": 6202,
      "token_6203": 6203,
      "token_6204": 6204,
      "token_6205": 6205,
      "token_6206": 6206,
      "token_6207": 6207,
      "token_6208": 6208,
      "token_6209": 6209,
      "token_6210": 6210,
      "token_6211": 6211,
      "token_6212": 6212,
      "token_6213": 6213,
      "token_6214": 6214,
      "token_6215": 6215,
      "token_6216": 6216,
      "token_6217": 6217,
      "token_6218": 6218,
      "token_6219": 6219,
      "token_6220": 6220,
      "token_6221": 6221,
      "token_6222": 6222,
      "token_6223": 6223,
      "token_6224": 6224,
      "token_6225": 6225,
      "token_6226": 6226,
      "token_6227": 6227,
      "token_6228": 6228,
      "token_6229": 6229,
      "token_6230": 6230,
      "token_6231": 6231,
      "token_6232": 6232,
      "token_6233": 6233,
      "token_6234": 6234,
      "token_6235": 6235,
      "token_6236": 6236,
      "token_6237": 6237,
      "token_6238": 6238,
      "token_6239": 6239,
      "token_6240": 6240,
      "token_6241": 6241,
      "token_6242": 6242,
      "token_6243": 6243,
      "token_6244": 6244,
      "token_6245": 6245,
      "token_6246": 6246,
      "token_6247": 6247,
      "token_6248": 6248,
      "token_6249": 6249,
      "token_6250": 6250,
      "token_6251": 6251,
      "token_6252": 6252,
      "token_6253": 6253,
      "token_6254": 6254,
      "token_6255": 6255,
      "token_6256": 6256,
      "token_6257": 6257,
      "token_6258": 6258,
      "token_6259": 6259,
      "token_6260": 6260,
      "token_6261": 6261,
      "token_6262": 6262,
      "token_6263": 6263,
      "token_6264": 6264,
      "token_6265": 6265,
      "token_6266": 6266,
      "token_6267": 6267,
      "token_6268": 6268,
      "token_6269": 6269,
      "token_6270": 6270,
      "token_6271": 6271,
      "token_6272": 6272,
      "token_6273": 6273,
      "token_6274": 6274,
      "token_6275": 6275,
      "token_6276": 6276,
      "token_6277": 6277,
      "token_6278": 6278,
      "token_6279": 6279,
      "token_6280": 6280,
      "token_6281": 6281,
      "token_6282": 6282,
      "token_6283": 6283,
      "token_6284": 6284,
      "token_6285": 6285,
      "token_6286": 6286,
      "token_6287": 6287,
      "token_6288": 6288,
      "token_6289": 6289,
      "token_6290": 6290,
      "token_6291": 6291,
      "token_6292": 6292,
      "token_6293": 6293,
      "token_6294": 6294,
      "token_6295": 6295,
      "token_6296": 6296,
      "token_6297": 6297,
      "token_6298": 6298,
      "token_6299": 6299,
      "token_6300": 6300,
      "token_6301": 6301,
      "token_6302": 6302,
      "token_6303": 6303,
      "token_6304": 6304,
      "token_6305": 6305,
      "token_6306": 6306,
      "token_6307": 6307,
      "token_6308": 6308,
      "token_6309": 6309,
      "token_6310": 6310,
      "token_6311": 6311,
      "token_6312": 6312,
      "token_6313": 6313,
      "token_6314": 6314,
      "token_6315": 6315,
      "token_6316": 6316,
      "token_6317": 6317,
      "token_6318": 6318,
      "token_6319": 6319,
      "token_6320": 6320,
      "token_6321": 6321,
      "token_6322": 6322,
      "token_6323": 6323,
      "token_6324": 6324,
      "token_6325": 6325,
      "token_6326": 6326,
      "token_6327": 6327,
      "token_6328": 6328,
      "token_6329": 6329,
      "token_6330": 6330,
      "token_6331": 6331,
      "token_6332": 6332,
      "token_6333": 6333,
      "token_6334": 6334,
      "token_6335": 6335,
      "token_6336": 6336,
      "token_6337": 6337,
      "token_6338": 6338,
      "token_6339": 6339,
      "token_6340": 6340,
      "token_6341": 6341,
      "token_6342": 6342,
      "token_6343": 6343,
      "token_6344": 6344,
      "token_6345": 6345,
      "token_6346": 6346,
      "token_6347": 6347,
      "token_6348": 6348,
      "token_6349": 6349,
      "token_6350": 6350,
      "token_6351": 6351,
      "token_6352": 6352,
      "token_6353": 6353,
      "token_6354": 6354,
      "token_6355": 6355,
      "token_6356": 6356,
      "token_6357": 6357,
      "token_6358": 6358,
      "token_6359": 6359,
      "token_6360": 6360,
      "token_6361": 6361,
      "token_6362": 6362,
      "token_6363": 6363,
      "token_6364": 6364,
      "token_6365": 6365,
      "token_6366": 6366,
      "token_6367": 6367,
      "token_6368": 6368,
      "token_6369": 6369,
      "token_6370": 6370,
      "token_6371": 6371,
      "token_6372": 6372,
      "token_6373": 6373,
      "token_6374": 6374,
      "token_6375": 6375,
      "token_6376": 6376,
      "token_6377": 6377,
      "token_6378": 6378,
      "token_6379": 6379,
      "token_6380": 6380,
      "token_6381": 6381,
      "token_6382": 6382,
      "token_6383": 6383,
      "token_6384": 6384,
      "token_6385": 6385,
      "token_6386": 6386,
      "token_6387": 6387,
      "token_6388": 6388,
      "token_6389": 6389,
      "token_6390": 6390,
      "token_6391": 6391,
      "token_6392": 6392,
      "token_6393": 6393,
      "token_6394": 6394,
      "token_6395": 6395,
      "token_6396": 6396,
      "token_6397": 6397,
      "token_6398": 6398,
      "token_6399": 6399,
      "token_6400": 6400,
      "token_6401": 6401,
      "token_6402": 6402,
      "token_6403": 6403,
      "token_6404": 6404,
      "token_6405": 6405,
      "token_6406": 6406,
      "token_6407": 6407,
      "token_6408": 6408,
      "token_6409": 6409,
      "token_6410": 6410,
      "token_6411": 6411,
      "token_6412": 6412,
      "token_6413": 6413,
      "token_6414": 6414,
      "token_6415": 6415,
      "token_6416": 6416,
      "token_6417": 6417,
      "token_6418": 6418,
      "token_6419": 6419,
      "token_6420": 6420,
      "token_6421": 6421,
      "token_6422": 6422,
      "token_6423": 6423,
      "token_6424": 6424,
      "token_6425": 6425,
      "token_6426": 6426,
      "token_6427": 6427,
      "token_6428": 6428,
      "token_6429": 6429,
      "token_6430": 6430,
      "token_6431": 6431,
      "token_6432": 6432,
      "token_6433": 6433,
      "token_6434": 6434,
      "token_6435": 6435,
      "token_6436": 6436,
      "token_6437": 6437,
      "token_6438": 6438,
      "token_6439": 6439,
      "token_6440": 6440,
      "token_6441": 6441,
      "token_6442": 6442,
      "token_6443": 6443,
      "token_6444": 6444,
      "token_6445": 6445,
      "token_6446": 6446,
      "token_6447": 6447,
      "token_6448": 6448,
      "token_6449": 6449,
      "token_6450": 6450,
      "token_6451": 6451,
      "token_6452": 6452,
      "token_6453": 6453,
      "token_6454": 6454,
      "token_6455": 6455,
      "token_6456": 6456,
      "token_6457": 6457,
      "token_6458": 6458,
      "token_6459": 6459,
      "token_6460": 6460,
      "token_6461": 6461,
      "token_6462": 6462,
      "token_6463": 6463,
      "token_6464": 6464,
      "token_6465": 6465,
      "token_6466": 6466,
      "token_6467": 6467,
      "token_6468": 6468,
      "token_6469": 6469,
      "token_6470": 6470,
      "token_6471": 6471,
      "token_6472": 6472,
      "token_6473": 6473,
      "token_6474": 6474,
      "token_6475": 6475,
      "token_6476": 6476,
      "token_6477": 6477,
      "token_6478": 6478,
      "token_6479": 6479,
      "token_6480": 6480,
      "token_6481": 6481,
      "token_6482": 6482,
      "token_6483": 6483,
      "token_6484": 6484,
      "token_6485": 6485,
      "token_6486": 6486,
      "token_6487": 6487,
      "token_6488": 6488,
      "token_6489": 6489,
      "token_6490": 6490,
      "token_6491": 6491,
      "token_6492": 6492,
      "token_6493": 6493,
      "token_6494": 6494,
      "token_6495": 6495,
      "token_6496": 6496,
      "token_6497": 6497,
      "token_6498": 6498,
      "token_6499": 6499,
      "token_6500": 6500,
      "token_6501": 6501,
      "token_6502": 6502,
      "token_6503": 6503,
      "token_6504": 6504,
      "token_6505": 6505,
      "token_6506": 6506,
      "token_6507": 6507,
      "token_6508": 6508,
      "token_6509": 6509,
      "token_6510": 6510,
      "token_6511": 6511,
      "token_6512": 6512,
      "token_6513": 6513,
      "token_6514": 6514,
      "token_6515": 6515,
      "token_6516": 6516,
      "token_6517": 6517,
      "token_6518": 6518,
      "token_6519": 6519,
      "token_6520": 6520,
      "token_6521": 6521,
      "token_6522": 6522,
      "token_6523": 6523,
      "token_6524": 6524,
      "token_6525": 6525,
      "token_6526": 6526,
      "token_6527": 6527,
      "token_6528": 6528,
      "token_6529": 6529,
      "token_6530": 6530,
      "token_6531": 6531,
      "token_6532": 6532,
      "token_6533": 6533,
      "token_6534": 6534,
      "token_6535": 6535,
      "token_6536": 6536,
      "token_6537": 6537,
      "token_6538": 6538,
      "token_6539": 6539,
      "token_6540": 6540,
      "token_6541": 6541,
      "token_6542": 6542,
      "token_6543": 6543,
      "token_6544": 6544,
      "token_6545": 6545,
      "token_6546": 6546,
      "token_6547": 6547,
      "token_6548": 6548,
      "token_6549": 6549,
      "token_6550": 6550,
      "token_6551": 6551,
      "token_6552": 6552,
      "token_6553": 6553,
      "token_6554": 6554,
      "token_6555": 6555,
      "token_6556": 6556,
      "token_6557": 6557,
      "token_6558": 6558,
      "token_6559": 6559,
      "token_6560": 6560,
      "token_6561": 6561,
      "token_6562": 6562,
      "token_6563": 6563,
      "token_6564": 6564,
      "token_6565": 6565,
      "token_6566": 6566,
      "token_6567": 6567,
      "token_6568": 6568,
      "token_6569": 6569,
      "token_6570": 6570,
      "token_6571": 6571,
      "token_6572": 6572,
      "token_6573": 6573,
      "token_6574": 6574,
      "token_6575": 6575,
      "token_6576": 6576,
      "token_6577": 6577,
      "token_6578": 6578,
      "token_6579": 6579,
      "token_6580": 6580,
      "token_6581": 6581,
      "token_6582": 6582,
      "token_6583": 6583,
      "token_6584": 6584,
      "token_6585": 6585,
      "token_6586": 6586,
      "token_6587": 6587,
      "token_6588": 6588,
      "token_6589": 6589,
      "token_6590": 6590,
      "token_6591": 6591,
      "token_6592": 6592,
      "token_6593": 6593,
      "token_6594": 6594,
      "token_6595": 6595,
      "token_6596": 6596,
      "token_6597": 6597,
      "token_6598": 6598,
      "token_6599": 6599,
      "token_6600": 6600,
      "token_6601": 6601,
      "token_6602": 6602,
      "token_6603": 6603,
      "token_6604": 6604,
      "token_6605": 6605,
      "token_6606": 6606,
      "token_6607": 6607,
      "token_6608": 6608,
      "token_6609": 6609,
      "token_6610": 6610,
      "token_6611": 6611,
      "token_6612": 6612,
      "token_6613": 6613,
      "token_6614": 6614,
      "token_6615": 6615,
      "token_6616": 6616,
      "token_6617": 6617,
      "token_6618": 6618,
      "token_6619": 6619,
      "token_6620": 6620,
      "token_6621": 6621,
      "token_6622": 6622,
      "token_6623": 6623,
      "token_6624": 6624,
      "token_6625": 6625,
      "token_6626": 6626,
      "token_6627": 6627,
      "token_6628": 6628,
      "token_6629": 6629,
      "token_6630": 6630,
      "token_6631": 6631,
      "token_6632": 6632,
      "token_6633": 6633,
      "token_6634": 6634,
      "token_6635": 6635,
      "token_6636": 6636,
      "token_6637": 6637,
      "token_6638": 6638,
      "token_6639": 6639,
      "token_6640": 6640,
      "token_6641": 6641,
      "token_6642": 6642,
      "token_6643": 6643,
      "token_6644": 6644,
      "token_6645": 6645,
      "token_6646": 6646,
      "token_6647": 6647,
      "token_6648": 6648,
      "token_6649": 6649,
      "token_6650": 6650,
      "token_6651": 6651,
      "token_6652": 6652,
      "token_6653": 6653,
      "token_6654": 6654,
      "token_6655": 6655,
      "token_6656": 6656,
      "token_6657": 6657,
      "token_6658": 6658,
      "token_6659": 6659,
      "token_6660": 6660,
      "token_6661": 6661,
      "token_6662": 6662,
      "token_6663": 6663,
      "token_6664": 6664,
      "token_6665": 6665,
      "token_6666": 6666,
      "token_6667": 6667,
      "token_6668": 6668,
      "token_6669": 6669,
      "token_6670": 6670,
      "token_6671": 6671,
      "token_6672": 6672,
      "token_6673": 6673,
      "token_6674": 6674,
      "token_6675": 6675,
      "token_6676": 6676,
      "token_6677": 6677,
      "token_6678": 6678,
      "token_6679": 6679,
      "token_6680": 6680,
      "token_6681": 6681,
      "token_6682": 6682,
      "token_6683": 6683,
      "token_6684": 6684,
      "token_6685": 6685,
      "token_6686": 6686,
      "token_6687": 6687,
      "token_6688": 6688,
      "token_6689": 6689,
      "token_6690": 6690,
      "token_6691": 6691,
      "token_6692": 6692,
      "token_6693": 6693,
      "token_6694": 6694,
      "token_6695": 6695,
      "token_6696": 6696,
      "token_6697": 6697,
      "token_6698": 6698,
      "token_6699": 6699,
      "token_6700": 6700,
      "token_6701": 6701,
      "token_6702": 6702,
      "token_6703": 6703,
      "token_6704": 6704,
      "token_6705": 6705,
      "token_6706": 6706,
      "token_6707": 6707,
      "token_6708": 6708,
      "token_6709": 6709,
      "token_6710": 6710,
      "token_6711": 6711,
      "token_6712": 6712,
      "token_6713": 6713,
      "token_6714": 6714,
      "token_6715": 6715,
      "token_6716": 6716,
      "token_6717": 6717,
      "token_6718": 6718,
      "token_6719": 6719,
      "token_6720": 6720,
      "token_6721": 6721,
      "token_6722": 6722,
      "token_6723": 6723,
      "token_6724": 6724,
      "token_6725": 6725,
      "token_6726": 6726,
      "token_6727": 6727,
      "token_6728": 6728,
      "token_6729": 6729,
      "token_6730": 6730,
      "token_6731": 6731,
      "token_6732": 6732,
      "token_6733": 6733,
      "token_6734": 6734,
      "token_6735": 6735,
      "token_6736": 6736,
      "token_6737": 6737,
      "token_6738": 6738,
      "token_6739": 6739,
      "token_6740": 6740,
      "token_6741": 6741,
      "token_6742": 6742,
      "token_6743": 6743,
      "token_6744": 6744,
      "token_6745": 6745,
      "token_6746": 6746,
      "token_6747": 6747,
      "token_6748": 6748,
      "token_6749": 6749,
      "token_6750": 6750,
      "token_6751": 6751,
      "token_6752": 6752,
      "token_6753": 6753,
      "token_6754": 6754,
      "token_6755": 6755,
      "token_6756": 6756,
      "token_6757": 6757,
      "token_6758": 6758,
      "token_6759": 6759,
      "token_6760": 6760,
      "token_6761": 6761,
      "token_6762": 6762,
      "token_6763": 6763,
      "token_6764": 6764,
      "token_6765": 6765,
      "token_6766": 6766,
      "token_6767": 6767,
      "token_6768": 6768,
      "token_6769": 6769,
      "token_6770": 6770,
      "token_6771": 6771,
      "token_6772": 6772,
      "token_6773": 6773,
      "token_6774": 6774,
      "token_6775": 6775,
      "token_6776": 6776,
      "token_6777": 6777,
      "token_6778": 6778,
      "token_6779": 6779,
      "token_6780": 6780,
      "token_6781": 6781,
      "token_6782": 6782,
      "token_6783": 6783,
      "token_6784": 6784,
      "token_6785": 6785,
      "token_6786": 6786,
      "token_6787": 6787,
      "token_6788": 6788,
      "token_6789": 6789,
      "token_6790": 6790,
      "token_6791": 6791,
      "token_6792": 6792,
      "token_6793": 6793,
      "token_6794": 6794,
      "token_6795": 6795,
      "token_6796": 6796,
      "token_6797": 6797,
      "token_6798": 6798,
      "token_6799": 6799,
      "token_6800": 6800,
      "token_6801": 6801,
      "token_6802": 6802,
      "token_6803": 6803,
      "token_6804": 6804,
      "token_6805": 6805,
      "token_6806": 6806,
      "token_6807": 6807,
      "token_6808": 6808,
      "token_6809": 6809,
      "token_6810": 6810,
      "token_6811": 6811,
      "token_6812": 6812,
      "token_6813": 6813,
      "token_6814": 6814,
      "token_6815": 6815,
      "token_6816": 6816,
      "token_6817": 6817,
      "token_6818": 6818,
      "token_6819": 6819,
      "token_6820": 6820,
      "token_6821": 6821,
      "token_6822": 6822,
      "token_6823": 6823,
      "token_6824": 6824,
      "token_6825": 6825,
      "token_6826": 6826,
      "token_6827": 6827,
      "token_6828": 6828,
      "token_6829": 6829,
      "token_6830": 6830,
      "token_6831": 6831,
      "token_6832": 6832,
      "token_6833": 6833,
      "token_6834": 6834,
      "token_6835": 6835,
      "token_6836": 6836,
      "token_6837": 6837,
      "token_6838": 6838,
      "token_6839": 6839,
      "token_6840": 6840,
      "token_6841": 6841,
      "token_6842": 6842,
      "token_6843": 6843,
      "token_6844": 6844,
      "token_6845": 6845,
      "token_6846": 6846,
      "token_6847": 6847,
      "token_6848": 6848,
      "token_6849": 6849,
      "token_6850": 6850,
      "token_6851": 6851,
      "token_6852": 6852,
      "token_6853": 6853,
      "token_6854": 6854,
      "token_6855": 6855,
      "token_6856": 6856,
      "token_6857": 6857,
      "token_6858": 6858,
      "token_6859": 6859,
      "token_6860": 6860,
      "token_6861": 6861,
      "token_6862": 6862,
      "token_6863": 6863,
      "token_6864": 6864,
      "token_6865": 6865,
      "token_6866": 6866,
      "token_6867": 6867,
      "token_6868": 6868,
      "token_6869": 6869,
      "token_6870": 6870,
      "token_6871": 6871,
      "token_6872": 6872,
      "token_6873": 6873,
      "token_6874": 6874,
      "token_6875": 6875,
      "token_6876": 6876,
      "token_6877": 6877,
      "token_6878": 6878,
      "token_6879": 6879,
      "token_6880": 6880,
      "token_6881": 6881,
      "token_6882": 6882,
      "token_6883": 6883,
      "token_6884": 6884,
      "token_6885": 6885,
      "token_6886": 6886,
      "token_6887": 6887,
      "token_6888": 6888,
      "token_6889": 6889,
      "token_6890": 6890,
      "token_6891": 6891,
      "token_6892": 6892,
      "token_6893": 6893,
      "token_6894": 6894,
      "token_6895": 6895,
      "token_6896": 6896,
      "token_6897": 6897,
      "token_6898": 6898,
      "token_6899": 6899,
      "token_6900": 6900,
      "token_6901": 6901,
      "token_6902": 6902,
      "token_6903": 6903,
      "token_6904": 6904,
      "token_6905": 6905,
      "token_6906": 6906,
      "token_6907": 6907,
      "token_6908": 6908,
      "token_6909": 6909,
      "token_6910": 6910,
      "token_6911": 6911,
      "token_6912": 6912,
      "token_6913": 6913,
      "token_6914": 6914,
      "token_6915": 6915,
      "token_6916": 6916,
      "token_6917": 6917,
      "token_6918": 6918,
      "token_6919": 6919,
      "token_6920": 6920,
      "token_6921": 6921,
      "token_6922": 6922,
      "token_6923": 6923,
      "token_6924": 6924,
      "token_6925": 6925,
      "token_6926": 6926,
      "token_6927": 6927,
      "token_6928": 6928,
      "token_6929": 6929,
      "token_6930": 6930,
      "token_6931": 6931,
      "token_6932": 6932,
      "token_6933": 6933,
      "token_6934": 6934,
      "token_6935": 6935,
      "token_6936": 6936,
      "token_6937": 6937,
      "token_6938": 6938,
      "token_6939": 6939,
      "token_6940": 6940,
      "token_6941": 6941,
      "token_6942": 6942,
      "token_6943": 6943,
      "token_6944": 6944,
      "token_6945": 6945,
      "token_6946": 6946,
      "token_6947": 6947,
      "token_6948": 6948,
      "token_6949": 6949,
      "token_6950": 6950,
      "token_6951": 6951,
      "token_6952": 6952,
      "token_6953": 6953,
      "token_6954": 6954,
      "token_6955": 6955,
      "token_6956": 6956,
      "token_6957": 6957,
      "token_6958": 6958,
      "token_6959": 6959,
      "token_6960": 6960,
      "token_6961": 6961,
      "token_6962": 6962,
      "token_6963": 6963,
      "token_6964": 6964,
      "token_6965": 6965,
      "token_6966": 6966,
      "token_6967": 6967,
      "token_6968": 6968,
      "token_6969": 6969,
      "token_6970": 6970,
      "token_6971": 6971,
      "token_6972": 6972,
      "token_6973": 6973,
      "token_6974": 6974,
      "token_6975": 6975,
      "token_6976": 6976,
      "token_6977": 6977,
      "token_6978": 6978,
      "token_6979": 6979,
      "token_6980": 6980,
      "token_6981": 6981,
      "token_6982": 6982,
      "token_6983": 6983,
      "token_6984": 6984,
      "token_6985": 6985,
      "token_6986": 6986,
      "token_6987": 6987,
      "token_6988": 6988,
      "token_6989": 6989,
      "token_6990": 6990,
      "token_6991": 6991,
      "token_6992": 6992,
      "token_6993": 6993,
      "token_6994": 6994,
      "token_6995": 6995,
      "token_6996": 6996,
      "token_6997": 6997,
      "token_6998": 6998,
      "token_6999": 6999,
      "token_7000": 7000,
      "token_7001": 7001,
      "token_7002": 7002,
      "token_7003": 7003,
      "token_7004": 7004,
      "token_7005": 7005,
      "token_7006": 7006,
      "token_7007": 7007,
      "token_7008": 7008,
      "token_7009": 7009,
      "token_7010": 7010,
      "token_7011": 7011,
      "token_7012": 7012,
      "token_7013": 7013,
      "token_7014": 7014,
      "token_7015": 7015,
      "token_7016": 7016,
      "token_7017": 7017,
      "token_7018": 7018,
      "token_7019": 7019,
      "token_7020": 7020,
      "token_7021": 7021,
      "token_7022": 7022,
      "token_7023": 7023,
      "token_7024": 7024,
      "token_7025": 7025,
      "token_7026": 7026,
      "token_7027": 7027,
      "token_7028": 7028,
      "token_7029": 7029,
      "token_7030": 7030,
      "token_7031": 7031,
      "token_7032": 7032,
      "token_7033": 7033,
      "token_7034": 7034,
      "token_7035": 7035,
      "token_7036": 7036,
      "token_7037": 7037,
      "token_7038": 7038,
      "token_7039": 7039,
      "token_7040": 7040,
      "token_7041": 7041,
      "token_7042": 7042,
      "token_7043": 7043,
      "token_7044": 7044,
      "token_7045": 7045,
      "token_7046": 7046,
      "token_7047": 7047,
      "token_7048": 7048,
      "token_7049": 7049,
      "token_7050": 7050,
      "token_7051": 7051,
      "token_7052": 7052,
      "token_7053": 7053,
      "token_7054": 7054,
      "token_7055": 7055,
      "token_7056": 7056,
      "token_7057": 7057,
      "token_7058": 7058,
      "token_7059": 7059,
      "token_7060": 7060,
      "token_7061": 7061,
      "token_7062": 7062,
      "token_7063": 7063,
      "token_7064": 7064,
      "token_7065": 7065,
      "token_7066": 7066,
      "token_7067": 7067,
      "token_7068": 7068,
      "token_7069": 7069,
      "token_7070": 7070,
      "token_7071": 7071,
      "token_7072": 7072,
      "token_7073": 7073,
      "token_7074": 7074,
      "token_7075": 7075,
      "token_7076": 7076,
      "token_7077": 7077,
      "token_7078": 7078,
      "token_7079": 7079,
      "token_7080": 7080,
      "token_7081": 7081,
      "token_7082": 7082,
      "token_7083": 7083,
      "token_7084": 7084,
      "token_7085": 7085,
      "token_7086": 7086,
      "token_7087": 7087,
      "token_7088": 7088,
      "token_7089": 7089,
      "token_7090": 7090,
      "token_7091": 7091,
      "token_7092": 7092,
      "token_7093": 7093,
      "token_7094": 7094,
      "token_7095": 7095,
      "token_7096": 7096,
      "token_7097": 7097,
      "token_7098": 7098,
      "token_7099": 7099,
      "token_7100": 7100,
      "token_7101": 7101,
      "token_7102": 7102,
      "token_7103": 7103,
      "token_7104": 7104,
      "token_7105": 7105,
      "token_7106": 7106,
      "token_7107": 7107,
      "token_7108": 7108,
      "token_7109": 7109,
      "token_7110": 7110,
      "token_7111": 7111,
      "token_7112": 7112,
      "token_7113": 7113,
      "token_7114": 7114,
      "token_7115": 7115,
      "token_7116": 7116,
      "token_7117": 7117,
      "token_7118": 7118,
      "token_7119": 7119,
      "token_7120": 7120,
      "token_7121": 7121,
      "token_7122": 7122,
      "token_7123": 7123,
      "token_7124": 7124,
      "token_7125": 7125,
      "token_7126": 7126,
      "token_7127": 7127,
      "token_7128": 7128,
      "token_7129": 7129,
      "token_7130": 7130,
      "token_7131": 7131,
      "token_7132": 7132,
      "token_7133": 7133,
      "token_7134": 7134,
      "token_7135": 7135,
      "token_7136": 7136,
      "token_7137": 7137,
      "token_7138": 7138,
      "token_7139": 7139,
      "token_7140": 7140,
      "token_7141": 7141,
      "token_7142": 7142,
      "token_7143": 7143,
      "token_7144": 7144,
      "token_7145": 7145,
      "token_7146": 7146,
      "token_7147": 7147,
      "token_7148": 7148,
      "token_7149": 7149,
      "token_7150": 7150,
      "token_7151": 7151,
      "token_7152": 7152,
      "token_7153": 7153,
      "token_7154": 7154,
      "token_7155": 7155,
      "token_7156": 7156,
      "token_7157": 7157,
      "token_7158": 7158,
      "token_7159": 7159,
      "token_7160": 7160,
      "token_7161": 7161,
      "token_7162": 7162,
      "token_7163": 7163,
      "token_7164": 7164,
      "token_7165": 7165,
      "token_7166": 7166,
      "token_7167": 7167,
      "token_7168": 7168,
      "token_7169": 7169,
      "token_7170": 7170,
      "token_7171": 7171,
      "token_7172": 7172,
      "token_7173": 7173,
      "token_7174": 7174,
      "token_7175": 7175,
      "token_7176": 7176,
      "token_7177": 7177,
      "token_7178": 7178,
      "token_7179": 7179,
      "token_7180": 7180,
      "token_7181": 7181,
      "token_7182": 7182,
      "token_7183": 7183,
      "token_7184": 7184,
      "token_7185": 7185,
      "token_7186": 7186,
      "token_7187": 7187,
      "token_7188": 7188,
      "token_7189": 7189,
      "token_7190": 7190,
      "token_7191": 7191,
      "token_7192": 7192,
      "token_7193": 7193,
      "token_7194": 7194,
      "token_7195": 7195,
      "token_7196": 7196,
      "token_7197": 7197,
      "token_7198": 7198,
      "token_7199": 7199,
      "token_7200": 7200,
      "token_7201": 7201,
      "token_7202": 7202,
      "token_7203": 7203,
      "token_7204": 7204,
      "token_7205": 7205,
      "token_7206": 7206,
      "token_7207": 7207,
      "token_7208": 7208,
      "token_7209": 7209,
      "token_7210": 7210,
      "token_7211": 7211,
      "token_7212": 7212,
      "token_7213": 7213,
      "token_7214": 7214,
      "token_7215": 7215,
      "token_7216": 7216,
      "token_7217": 7217,
      "token_7218": 7218,
      "token_7219": 7219,
      "token_7220": 7220,
      "token_7221": 7221,
      "token_7222": 7222,
      "token_7223": 7223,
      "token_7224": 7224,
      "token_7225": 7225,
      "token_7226": 7226,
      "token_7227": 7227,
      "token_7228": 7228,
      "token_7229": 7229,
      "token_7230": 7230,
      "token_7231": 7231,
      "token_7232": 7232,
      "token_7233": 7233,
      "token_7234": 7234,
      "token_7235": 7235,
      "token_7236": 7236,
      "token_7237": 7237,
      "token_7238": 7238,
      "token_7239": 7239,
      "token_7240": 7240,
      "token_7241": 7241,
      "token_7242": 7242,
      "token_7243": 7243,
      "token_7244": 7244,
      "token_7245": 7245,
      "token_7246": 7246,
      "token_7247": 7247,
      "token_7248": 7248,
      "token_7249": 7249,
      "token_7250": 7250,
      "token_7251": 7251,
      "token_7252": 7252,
      "token_7253": 7253,
      "token_7254": 7254,
      "token_7255": 7255,
      "token_7256": 7256,
      "token_7257": 7257,
      "token_7258": 7258,
      "token_7259": 7259,
      "token_7260": 7260,
      "token_7261": 7261,
      "token_7262": 7262,
      "token_7263": 7263,
      "token_7264": 7264,
      "token_7265": 7265,
      "token_7266": 7266,
      "token_7267": 7267,
      "token_7268": 7268,
      "token_7269": 7269,
      "token_7270": 7270,
      "token_7271": 7271,
      "token_7272": 7272,
      "token_7273": 7273,
      "token_7274": 7274,
      "token_7275": 7275,
      "token_7276": 7276,
      "token_7277": 7277,
      "token_7278": 7278,
      "token_7279": 7279,
      "token_7280": 7280,
      "token_7281": 7281,
      "token_7282": 7282,
      "token_7283": 7283,
      "token_7284": 7284,
      "token_7285": 7285,
      "token_7286": 7286,
      "token_7287": 7287,
      "token_7288": 7288,
      "token_7289": 7289,
      "token_7290": 7290,
      "token_7291": 7291,
      "token_7292": 7292,
      "token_7293": 7293,
      "token_7294": 7294,
      "token_7295": 7295,
      "token_7296": 7296,
      "token_7297": 7297,
      "token_7298": 7298,
      "token_7299": 7299,
      "token_7300": 7300,
      "token_7301": 7301,
      "token_7302": 7302,
      "token_7303": 7303,
      "token_7304": 7304,
      "token_7305": 7305,
      "token_7306": 7306,
      "token_7307": 7307,
      "token_7308": 7308,
      "token_7309": 7309,
      "token_7310": 7310,
      "token_7311": 7311,
      "token_7312": 7312,
      "token_7313": 7313,
      "token_7314": 7314,
      "token_7315": 7315,
      "token_7316": 7316,
      "token_7317": 7317,
      "token_7318": 7318,
      "token_7319": 7319,
      "token_7320": 7320,
      "token_7321": 7321,
      "token_7322": 7322,
      "token_7323": 7323,
      "token_7324": 7324,
      "token_7325": 7325,
      "token_7326": 7326,
      "token_7327": 7327,
      "token_7328": 7328,
      "token_7329": 7329,
      "token_7330": 7330,
      "token_7331": 7331,
      "token_7332": 7332,
      "token_7333": 7333,
      "token_7334": 7334,
      "token_7335": 7335,
      "token_7336": 7336,
      "token_7337": 7337,
      "token_7338": 7338,
      "token_7339": 7339,
      "token_7340": 7340,
      "token_7341": 7341,
      "token_7342": 7342,
      "token_7343": 7343,
      "token_7344": 7344,
      "token_7345": 7345,
      "token_7346": 7346,
      "token_7347": 7347,
      "token_7348": 7348,
      "token_7349": 7349,
      "token_7350": 7350,
      "token_7351": 7351,
      "token_7352": 7352,
      "token_7353": 7353,
      "token_7354": 7354,
      "token_7355": 7355,
      "token_7356": 7356,
      "token_7357": 7357,
      "token_7358": 7358,
      "token_7359": 7359,
      "token_7360": 7360,
      "token_7361": 7361,
      "token_7362": 7362,
      "token_7363": 7363,
      "token_7364": 7364,
      "token_7365": 7365,
      "token_7366": 7366,
      "token_7367": 7367,
      "token_7368": 7368,
      "token_7369": 7369,
      "token_7370": 7370,
      "token_7371": 7371,
      "token_7372": 7372,
      "token_7373": 7373,
      "token_7374": 7374,
      "token_7375": 7375,
      "token_7376": 7376,
      "token_7377": 7377,
      "token_7378": 7378,
      "token_7379": 7379,
      "token_7380": 7380,
      "token_7381": 7381,
      "token_7382": 7382,
      "token_7383": 7383,
      "token_7384": 7384,
      "token_7385": 7385,
      "token_7386": 7386,
      "token_7387": 7387,
      "token_7388": 7388,
      "token_7389": 7389,
      "token_7390": 7390,
      "token_7391": 7391,
      "token_7392": 7392,
      "token_7393": 7393,
      "token_7394": 7394,
      "token_7395": 7395,
      "token_7396": 7396,
      "token_7397": 7397,
      "token_7398": 7398,
      "token_7399": 7399,
      "token_7400": 7400,
      "token_7401": 7401,
      "token_7402": 7402,
      "token_7403": 7403,
      "token_7404": 7404,
      "token_7405": 7405,
      "token_7406": 7406,
      "token_7407": 7407,
      "token_7408": 7408,
      "token_7409": 7409,
      "token_7410": 7410,
      "token_7411": 7411,
      "token_7412": 7412,
      "token_7413": 7413,
      "token_7414": 7414,
      "token_7415": 7415,
      "token_7416": 7416,
      "token_7417": 7417,
      "token_7418": 7418,
      "token_7419": 7419,
      "token_7420": 7420,
      "token_7421": 7421,
      "token_7422": 7422,
      "token_7423": 7423,
      "token_7424": 7424,
      "token_7425": 7425,
      "token_7426": 7426,
      "token_7427": 7427,
      "token_7428": 7428,
      "token_7429": 7429,
      "token_7430": 7430,
      "token_7431": 7431,
      "token_7432": 7432,
      "token_7433": 7433,
      "token_7434": 7434,
      "token_7435": 7435,
      "token_7436": 7436,
      "token_7437": 7437,
      "token_7438": 7438,
      "token_7439": 7439,
      "token_7440": 7440,
      "token_7441": 7441,
      "token_7442": 7442,
      "token_7443": 7443,
      "token_7444": 7444,
      "token_7445": 7445,
      "token_7446": 7446,
      "token_7447": 7447,
      "token_7448": 7448,
      "token_7449": 7449,
      "token_7450": 7450,
      "token_7451": 7451,
      "token_7452": 7452,
      "token_7453": 7453,
      "token_7454": 7454,
      "token_7455": 7455,
      "token_7456": 7456,
      "token_7457": 7457,
      "token_7458": 7458,
      "token_7459": 7459,
      "token_7460": 7460,
      "token_7461": 7461,
      "token_7462": 7462,
      "token_7463": 7463,
      "token_7464": 7464,
      "token_7465": 7465,
      "token_7466": 7466,
      "token_7467": 7467,
      "token_7468": 7468,
      "token_7469": 7469,
      "token_7470": 7470,
      "token_7471": 7471,
      "token_7472": 7472,
      "token_7473": 7473,
      "token_7474": 7474,
      "token_7475": 7475,
      "token_7476": 7476,
      "token_7477": 7477,
      "token_7478": 7478,
      "token_7479": 7479,
      "token_7480": 7480,
      "token_7481": 7481,
      "token_7482": 7482,
      "token_7483": 7483,
      "token_7484": 7484,
      "token_7485": 7485,
      "token_7486": 7486,
      "token_7487": 7487,
      "token_7488": 7488,
      "token_7489": 7489,
      "token_7490": 7490,
      "token_7491": 7491,
      "token_7492": 7492,
      "token_7493": 7493,
      "token_7494": 7494,
      "token_7495": 7495,
      "token_7496": 7496,
      "token_7497": 7497,
      "token_7498": 7498,
      "token_7499": 7499,
      "token_7500": 7500,
      "token_7501": 7501,
      "token_7502": 7502,
      "token_7503": 7503,
      "token_7504": 7504,
      "token_7505": 7505,
      "token_7506": 7506,
      "token_7507": 7507,
      "token_7508": 7508,
      "token_7509": 7509,
      "token_7510": 7510,
      "token_7511": 7511,
      "token_7512": 7512,
      "token_7513": 7513,
      "token_7514": 7514,
      "token_7515": 7515,
      "token_7516": 7516,
      "token_7517": 7517,
      "token_7518": 7518,
      "token_7519": 7519,
      "token_7520": 7520,
      "token_7521": 7521,
      "token_7522": 7522,
      "token_7523": 7523,
      "token_7524": 7524,
      "token_7525": 7525,
      "token_7526": 7526,
      "token_7527": 7527,
      "token_7528": 7528,
      "token_7529": 7529,
      "token_7530": 7530,
      "token_7531": 7531,
      "token_7532": 7532,
      "token_7533": 7533,
      "token_7534": 7534,
      "token_7535": 7535,
      "token_7536": 7536,
      "token_7537": 7537,
      "token_7538": 7538,
      "token_7539": 7539,
      "token_7540": 7540,
      "token_7541": 7541,
      "token_7542": 7542,
      "token_7543": 7543,
      "token_7544": 7544,
      "token_7545": 7545,
      "token_7546": 7546,
      "token_7547": 7547,
      "token_7548": 7548,
      "token_7549": 7549,
      "token_7550": 7550,
      "token_7551": 7551,
      "token_7552": 7552,
      "token_7553": 7553,
      "token_7554": 7554,
      "token_7555": 7555,
      "token_7556": 7556,
      "token_7557": 7557,
      "token_7558": 7558,
      "token_7559": 7559,
      "token_7560": 7560,
      "token_7561": 7561,
      "token_7562": 7562,
      "token_7563": 7563,
      "token_7564": 7564,
      "token_7565": 7565,
      "token_7566": 7566,
      "token_7567": 7567,
      "token_7568": 7568,
      "token_7569": 7569,
      "token_7570": 7570,
      "token_7571": 7571,
      "token_7572": 7572,
      "token_7573": 7573,
      "token_7574": 7574,
      "token_7575": 7575,
      "token_7576": 7576,
      "token_7577": 7577,
      "token_7578": 7578,
      "token_7579": 7579,
      "token_7580": 7580,
      "token_7581": 7581,
      "token_7582": 7582,
      "token_7583": 7583,
      "token_7584": 7584,
      "token_7585": 7585,
      "token_7586": 7586,
      "token_7587": 7587,
      "token_7588": 7588,
      "token_7589": 7589,
      "token_7590": 7590,
      "token_7591": 7591,
      "token_7592": 7592,
      "token_7593": 7593,
      "token_7594": 7594,
      "token_7595": 7595,
      "token_7596": 7596,
      "token_7597": 7597,
      "token_7598": 7598,
      "token_7599": 7599,
      "token_7600": 7600,
      "token_7601": 7601,
      "token_7602": 7602,
      "token_7603": 7603,
      "token_7604": 7604,
      "token_7605": 7605,
      "token_7606": 7606,
[...]
